<unk>	0
<s>	0
</s>	0
om	-0
0:	-1
0,	-2
▁1	-3
0:2	-4
Ar	-5
Ch	-6
Ge	-7
ea	-8
ne	-9
os	-10
▁(	-11
▁-	-12
Chr	-13
ome	-14
▁Ar	-15
▁Ge	-16
omos	-17
▁Area	-18
▁Gene	-19
Chromos	-20
Chromosome	-21
▁0	-22
▁0/	-23
▁1)	-24
1:	-25
0,6	-26
▁0/0:2	-27
,0:2	-28
:6	-29
9:	-30
99:	-31
,1	-32
▁0/1:	-33
0:0,6	-34
0)	-35
▁10)	-36
0:0,60,	-37
,0,	-38
:99:	-39
:60:0,60,	-40
:0,6	-41
▁0/1:1	-42
1:0,	-43
:3	-44
3,	-45
▁1/	-46
▁1/1:0,	-47
0:3	-48
:2	-49
,0	-50
0:1	-51
90	-52
:0,	-53
,8	-54
:63	-55
:0,63,	-56
,0:24	-57
4,0:24	-58
▁0/0:24,0:24	-59
,0:23	-60
3,0:23	-61
▁0/0:23,0:23	-62
:63:0,63,	-63
,9	-64
:60:0,60,8	-65
,0:25	-66
5,0:25	-67
▁0/0:25,0:25	-68
900	-69
,0:22	-70
2,0:22	-71
▁0/0:22,0:22	-72
▁0/1:2	-73
45	-74
:60:0,60,900	-75
,0:26	-76
6,0:26	-77
▁0/0:26,0:26	-78
72	-79
▁1/1:0,3	-80
75	-81
▁0/0:3	-82
:99:1	-83
,2	-84
,0,3	-85
,10	-86
78	-87
,0,4	-88
:4	-89
1:6	-90
▁0/0:1	-91
99	-92
▁1/1:0,2	-93
:66	-94
1,	-95
,0:27	-96
7,0:27	-97
▁0/0:27,0:27	-98
1,0:2	-99
▁0/0:21,0:2	-100
:99:3	-101
,0,5	-102
:0,66	-103
:99:4	-104
▁0/0:21,0:21:6	-105
,0:1	-106
:66:0,66	-107
76	-108
10	-109
74	-110
:99:5	-111
:63:0,63,8	-112
:8	-113
,12	-114
1:0,6	-115
,0:28	-116
8,0:28	-117
▁0/0:28,0:28	-118
11	-119
,0,2	-120
9:99:	-121
:63:0,63,9	-122
:61:0,6	-123
73	-124
2,	-125
0:99:	-126
1:99:	-127
54	-128
0,69	-129
:62	-130
,13	-131
79	-132
71	-133
0,1	-134
0:6	-135
:99:2	-136
:62:0,6	-137
35	-138
70	-139
48	-140
,14	-141
:9	-142
:69:	-143
6:3	-144
0,0,	-145
▁0/1:15	-146
7:3	-147
25	-148
0:0,60,6	-149
9,0:2	-150
▁0/0:29,0:2	-151
,15	-152
:99	-153
14	-154
▁0/1:14	-155
57	-156
▁0/1:16	-157
18	-158
0,0:2	-159
▁0/0:20,0:2	-160
36	-161
:63:0,63,945	-162
:61:0,61	-163
:69:0,69	-164
▁0/1:17	-165
42	-166
8:3	-167
▁0/1:18	-168
44	-169
16	-170
15	-171
17	-172
38	-173
12	-174
39	-175
:62:0,62	-176
:65	-177
77	-178
▁0/1:19	-179
46	-180
32	-181
:27	-182
:28	-183
:66:0,66,9	-184
▁0/1:12	-185
,6	-186
24	-187
55	-188
27	-189
34	-190
87	-191
:26	-192
,0:3	-193
49	-194
33	-195
,19:	-196
▁0/0:20,0:20:6	-197
:0,65	-198
84	-199
0,0:3	-200
▁0/0:30,0:3	-201
22	-202
:33	-203
:61:0,61,8	-204
▁0/1:13	-205
93	-206
,0,6	-207
0:0,	-208
26	-209
:25	-210
13	-211
80	-212
:65:0,65	-213
:72	-214
56	-215
43	-216
,11:	-217
19	-218
:66:0,66,8	-219
28	-220
:0,72	-221
3,0	-222
29	-223
:32	-224
0,0	-225
:64	-226
,17:3	-227
▁0/0:29,0:29	-228
81	-229
:0,64	-230
86	-231
23	-232
85	-233
▁0/1:11	-234
,16:3	-235
6,0	-236
:24	-237
,18:3	-238
30	-239
:62:0,62,8	-240
37	-241
:64:0,64	-242
0:4	-243
9,0	-244
▁0/1:21	-245
:34	-246
1,0:3	-247
▁0/0:31,0:3	-248
40	-249
88	-250
:99:6	-251
:61:0,61,	-252
:10	-253
:5	-254
47	-255
96	-256
:23	-257
:35	-258
:29:99:	-259
:42	-260
,21:	-261
06	-262
89	-263
▁0/1:22	-264
:72:0,72	-265
:75	-266
20	-267
:60:0,60,7	-268
2,0	-269
9:2	-270
,5	-271
21	-272
▁0/1:20,1	-273
95	-274
94	-275
83	-276
▁0/0:29,0:29:	-277
3:33	-278
8,0	-279
41	-280
82	-281
05	-282
:22	-283
,22	-284
2:32	-285
69	-286
1:3	-287
:0,75	-288
65	-289
1,0	-290
02	-291
07	-292
92	-293
▁0/1:9	-294
04	-295
,10:2	-296
▁0/1:10,1	-297
:78	-298
7:0,6	-299
7:0,67	-300
0:32	-301
9:0,	-302
61	-303
,16	-304
5,0	-305
▁0/0:30,0:30:	-306
:60:0,60,78	-307
62	-308
:84	-309
0:33	-310
53	-311
67	-312
▁1/1:0,4	-313
03	-314
09	-315
59	-316
4:34	-317
▁1/1:0,32:32	-318
52	-319
68	-320
:66:0,66,990	-321
01	-322
31	-323
64	-324
,11	-325
6:36	-326
:66:0,66,	-327
60	-328
:7	-329
:60:0,60,75	-330
▁1/1:0,33:33	-331
:60:0,60,76	-332
▁1/1:0,32:32:9	-333
58	-334
▁0/0:30,0:30:6	-335
7,0	-336
6:26	-337
2,0:32	-338
7:99:1	-339
▁0/0:32,0:32	-340
66	-341
0:0,60,900	-342
08	-343
:45	-344
5:35	-345
:68	-346
:0,68	-347
91	-348
,20:3	-349
98	-350
▁0/0:31,0:31:	-351
:65:0,65,8	-352
7:27	-353
▁1/1:0,29:2	-354
:67:0,67	-355
▁1/1:0,34:34	-356
8:28	-357
3,0:33	-358
:62:0,62,	-359
▁1/1:0,31:3	-360
▁0/0:33,0:33	-361
4,0	-362
0:30:	-363
:30:99:	-364
▁1/1:0,29:29:	-365
5:25	-366
9,0:1	-367
▁0/0:19,0:1	-368
▁1/1:0,30:30:	-369
:43	-370
9:3	-371
63	-372
6,0:1	-373
:69:0,69,10	-374
▁0/0:16,0:1	-375
97	-376
:69:0,69,9	-377
▁0/1:24	-378
51	-379
▁1/1:0,26:26	-380
▁1/1:0,31:31:	-381
7,0:1	-382
▁0/0:17,0:1	-383
:44	-384
8:99:1	-385
8,0:1	-386
▁0/0:18,0:1	-387
▁0/0:19,0:19:	-388
:60:0,60,79	-389
:36	-390
:68:0,68	-391
▁1/1:0,27:27	-392
▁1/1:0,28:28	-393
70,	-394
,17	-395
▁1/1:0,36:36	-396
4:24	-397
5,0:1	-398
▁0/0:15,0:1	-399
50	-400
▁0/1:8	-401
,23	-402
▁0/1:13,	-403
▁1/1:0,37:3	-404
▁1/1:0,27:27:8	-405
,18	-406
4,0:1	-407
▁0/1:20,	-408
▁0/0:14,0:1	-409
▁1/1:0,35:35	-410
▁1/1:0,32:32:96	-411
3:23	-412
9:39:99:	-413
:0,3	-414
:62:0,62,9	-415
:31:99:	-416
0:0,60,69	-417
▁1/1:0,25:25	-418
78,0	-419
:0,4	-420
:69:0,69,8	-421
▁0/0:15,0:15	-422
54:0,	-423
54:0,54	-424
,0,45	-425
:60:0,60,74	-426
3,0:1	-427
,111	-428
0:40:99:	-429
41:99:	-430
51,	-431
▁1/1:0,29:29:87	-432
:64:0,64,8	-433
▁0/0:14,0:14	-434
:1	-435
,9:	-436
▁1/1:0,26:26:78	-437
0:0,70,	-438
:0,78	-439
▁0/1:25	-440
:75:0,75	-441
8:38:99:1	-442
:60:0,60,6	-443
▁1/1:0,31:31:93	-444
00	-445
,24	-446
▁0/0:13,0:1	-447
,99,0	-448
,102,0	-449
▁1/1:0,28:28:84	-450
:61:0,61,9	-451
:69:0,69,1035	-452
,0,1	-453
,0:34	-454
4,0:34	-455
▁0/0:34,0:34	-456
2:22	-457
,96,0	-458
:99:45	-459
▁1/1:0,30:30:9	-460
1:0,51,	-461
▁0/0:31,0:31:6	-462
▁1/1:0,39:39:99:	-463
▁1/1:0,27:27:81:	-464
:46	-465
▁0/1:23	-466
:60:0,60,73	-467
:0,42,	-468
▁0/0:18,0:18	-469
,72	-470
,0,8	-471
▁1/1:0,23:23	-472
0,10	-473
:37	-474
:48	-475
,108,0	-476
,1080	-477
,114	-478
75,0	-479
▁1/1:0,24:24	-480
:28:99:3	-481
765	-482
,87,0	-483
:27:99:3	-484
54:0,54,8	-485
1:2	-486
,0:35	-487
,93,0	-488
5,0:35	-489
▁0/0:35,0:35	-490
30,	-491
,105,0	-492
:0,33,	-493
1:41:99:	-494
▁1/1:0,25:25:75	-495
,84,0	-496
:65:0,65,9	-497
99:6	-498
54:0,54,810	-499
▁0/0:20,0:20:	-500
72:0,72	-501
,7	-502
:26:99:3	-503
:99:10	-504
:64:0,64,9	-505
,81,0	-506
57:0,	-507
▁0/0:	-508
57:0,57	-509
,25	-510
:0,84	-511
3:0,63,	-512
▁0/1:23,	-513
:42:0,42,	-514
▁0/0:17,0:17	-515
9:0,39	-516
:40:99:	-517
▁0/0:13,0:13	-518
▁1/1:0,22:22	-519
,0:	-520
,90,0	-521
,111,0	-522
75:0,75	-523
▁0/0:4	-524
▁1/1:	-525
0:0,60,8	-526
0:0,60,70	-527
▁1/1:0,40:40:99:	-528
,855	-529
,0,10	-530
:60:0,60,72	-531
▁0/0:16,0:16	-532
▁1/1:0,41:41:99:	-533
:0,48	-534
:63:0,63,90	-535
:18	-536
,78,0	-537
0,0,5	-538
1:0,71	-539
▁0/1:26	-540
:0,27	-541
▁0/0:21,0:21:	-542
▁0/1:7	-543
:28:99:4	-544
:63:0,63,7	-545
,117	-546
57:0,57,855	-547
0,11	-548
0:0,30,	-549
:25:99:3	-550
▁1/1:0,24:24:72	-551
,90	-552
,117,0	-553
,114,0	-554
1:0,81	-555
:0,2	-556
,0:12	-557
:0,36	-558
:60:0,60,9	-559
▁1/1:0,23:23:69:	-560
74:0,	-561
74:0,74	-562
51:0,51,	-563
:0,45	-564
,0,11	-565
:41:99:	-566
▁0/0:12	-567
0:0,60,73	-568
,0,9	-569
▁0/1:10,	-570
:72:0,72,9	-571
,0,12	-572
,26	-573
21,	-574
▁0/0:12,0:12	-575
:11	-576
:38	-577
4:99:4	-578
:21:99:	-579
▁0/1:27	-580
3,9	-581
▁1/1:0,22:22:66	-582
19:	-583
,54	-584
:99:12	-585
0:0,60,72	-586
:47	-587
,75,0	-588
,120,0	-589
73:0,	-590
:63:0,63,78	-591
▁1/1:0,21:2	-592
:99:62	-593
78:0,78	-594
:70:0,70,	-595
:99:15	-596
1,0:1	-597
42:42	-598
2:99:4	-599
5:99:4	-600
▁1/1:0,42:42	-601
▁1/1:0,21:21:6	-602
,0:37	-603
7,0:37	-604
:0,27,	-605
:99:63	-606
:32:99:3	-607
▁0/0:37,0:37	-608
▁0/0:16,0:16:3	-609
:0,24	-610
:24:99:3	-611
:84:0,84	-612
:60:0,60,70	-613
:67:0,67,8	-614
,20:	-615
3,0,6	-616
:99:11	-617
1:0,21,	-618
▁0/1:15,16:3	-619
3:0,	-620
,123,0	-621
:17	-622
0,0,6	-623
3:99:4	-624
0,0,4	-625
▁0/0:11,0:1	-626
:54	-627
,0:36	-628
0:0,9	-629
6,0:36	-630
70:0,70,	-631
:27:99:4	-632
:67:0,67,9	-633
▁0/0:36,0:36	-634
495	-635
,72,0	-636
44:44	-637
▁0/1:28	-638
:45:0,45	-639
:78:0,78	-640
▁1/1:0,20:2	-641
▁1/1:0,44:44	-642
,4	-643
43:43	-644
:60:0,60,71	-645
:63:0,63,75	-646
▁1/1:0,43:43	-647
:72:0,72,1080	-648
▁0/0:17,0:17:3	-649
7:0,	-650
2,0,6	-651
1:99:5	-652
▁1/1:0,21:21:63	-653
,126,0	-654
:63:0,63,79	-655
:57:0,57,855	-656
:36:0,36	-657
▁0/1:14,13	-658
:99:8	-659
:99:65	-660
▁0/1:14,14	-661
,69,0	-662
:39:99:	-663
9:0,39,5	-664
0:0,60,75	-665
777	-666
0:0,60,7	-667
▁0/1:15,14	-668
51:0,51,765	-669
:72:0,72,10	-670
0:0,60,71	-671
:63:0,63,76	-672
1,0,6	-673
:19:99:	-674
,13:29:99:	-675
0,9	-676
450	-677
:71:0,71	-678
:72:0,72,8	-679
1,6	-680
:77	-681
,720	-682
9:99	-683
,11:2	-684
1,0,3	-685
:90:0,9	-686
,15:31:99:	-687
▁0/1:12,13	-688
▁0/1:12,14	-689
:60:0,60,69	-690
▁0/1:14,17:3	-691
▁1/1:0,20:20:6	-692
0,12	-693
0,0,3	-694
8,0,3	-695
:0,22,	-696
▁1/1:1,	-697
:26:99:4	-698
▁0/1:15,13	-699
,66,0	-700
1,0,4	-701
76:0,	-702
76:0,76	-703
:30:0,30,	-704
▁0/1:13,13	-705
0:10	-706
,0,16	-707
3,0,4	-708
7:99:5	-709
:48:0,48	-710
:33:0,33,	-711
▁0/1:20,2	-712
,13:30:99:	-713
:68:0,68,9	-714
▁0/1:18,16:3	-715
,116	-716
,0,71	-717
,1125	-718
,15:33	-719
7:99:4	-720
:99:66	-721
:20:99:	-722
▁0/1:17,17:3	-723
▁0/1:18,15:33	-724
:0,25	-725
5:99:5	-726
9:0,69	-727
:0,24,	-728
▁0/1:13,2	-729
75:0,75,10	-730
:68:0,68,8	-731
▁0/1:14,12	-732
▁0/1:15,17:3	-733
:16	-734
4:99:5	-735
▁0/1:6	-736
:54:0,54,810	-737
,78	-738
:14	-739
,10:1	-740
7,0,4	-741
40:99:	-742
▁0/1:13,15	-743
,27	-744
,132,0	-745
:99:70	-746
▁0/1:11,13	-747
▁0/1:16,14	-748
▁0/1:16,17:3	-749
▁1/1:0,30:30:90:	-750
405	-751
744	-752
:98	-753
6,0,4	-754
:35:99:3	-755
▁0/1:18,14	-756
:61:0,61,78	-757
:60:0,60,806	-758
,0,18	-759
,11:27	-760
,19:36	-761
6:99:4	-762
48:0,48	-763
,15:30:99:	-764
▁0/1:15,12	-765
:63:0,63,73	-766
▁0/1:16,11:27	-767
▁0/1:17,19:36	-768
▁0/0:33,0:33:8	-769
,1170	-770
46:46	-771
,11:25	-772
81:0,81	-773
▁0/1:13,16	-774
▁0/1:14,15	-775
▁0/1:16,16:3	-776
▁1/1:0,46:46	-777
▁0/1:14,11:25	-778
0:5	-779
20,	-780
:12	-781
,0,72	-782
,0,78	-783
0,0:1	-784
:42:0,42,6	-785
▁0/1:14,16:3	-786
▁0/1:16,18:3	-787
,110	-788
,1035	-789
1,0,5	-790
7,0,5	-791
7:0,87	-792
9:0,79	-793
9:99:5	-794
▁0/1:13,17:3	-795
▁0/1:14,18:3	-796
▁0/1:19,17:3	-797
3,6	-798
,675	-799
2,0,3	-800
9:0,29	-801
:99:16	-802
:27:0,27,	-803
▁0/1:13,12	-804
▁0/0:18,0:18:3	-805
,28	-806
:52	-807
0,99	-808
▁0/1:13,14	-809
▁0/0:10,0:1	-810
▁0/1:15,18:3	-811
▁0/1:17,18:3	-812
▁0/0:32,0:32:8	-813
2,6	-814
18:18	-815
,129,0	-816
1:99:6	-817
8:99:4	-818
▁1/1:0,5	-819
0:0,60,76	-820
:51:0,51,	-821
,14:31:99:	-822
▁0/1:17,15	-823
▁0/1:13,18:3	-824
▁0/1:18,17:3	-825
▁0/1:18,18:3	-826
▁1/1:0,18:18	-827
▁1/1:0,32:32:95	-828
5:0,	-829
,0:38	-830
,19:3	-831
0,0,2	-832
:0,63	-833
8,0:38	-834
71:0,71	-835
:29:0,29	-836
:74:0,74	-837
:21:0,21,	-838
▁0/0:38,0:38	-839
▁0/1:19,16:3	-840
,3	-841
315	-842
3,0,3	-843
45:45	-844
9,0,4	-845
:99:9	-846
:29:99:4	-847
▁0/0:40,	-848
▁0/1:12,17	-849
:60:0,60,849	-850
▁0/1:12,10:2	-851
▁1/1:0,45:45	-852
,21:3	-853
7,0,3	-854
,15:34	-855
6:99:5	-856
:23:99:3	-857
,12:30:99:	-858
72:0,72,10	-859
▁1/1:0,19:	-860
:60:0,60,855	-861
▁0/1:17,16:3	-862
▁0/0:11,0:11:	-863
▁0/1:19,15:34	-864
▁0/1:20,16:36	-865
:40:	-866
6,0,3	-867
9,0,3	-868
:0,34	-869
3:99:5	-870
:73:0,	-871
:63:0,63,74	-872
:60:0,60,789	-873
:60:0,60,835	-874
5,0,4	-875
,19:37	-876
▁0/1:29	-877
:66:0,66,7	-878
▁0/1:11,12	-879
▁0/1:12,15	-880
▁0/1:12,16	-881
▁0/1:19,18:3	-882
▁0/1:18,19:37	-883
:74	-884
0,0,1	-885
2,0,5	-886
:0,26	-887
6:0,66	-888
▁1/1:1	-889
38:99:5	-890
:99:118	-891
:25:0,25	-892
:32:99:4	-893
:75:0,75,9	-894
▁0/1:12,12	-895
▁0/1:16,12	-896
▁0/1:19,13	-897
▁0/1:12,10:22	-898
906	-899
,0,73	-900
0:0,8	-901
4,0,4	-902
,11:26	-903
,19:32	-904
,19:35	-905
84:0,84	-906
▁0/1:12,	-907
▁0/1:23,2	-908
:61:0,61,7	-909
▁0/1:11,15	-910
▁0/1:13,19:32	-911
▁0/1:15,11:26	-912
▁0/1:16,19:35	-913
▁1/1:0,19:19:	-914
▁0/0:10,0:10:2	-915
,115	-916
,63,0	-917
2,0,4	-918
9,0,5	-919
9,0:3	-920
:0,77	-921
,21:36	-922
2:99:5	-923
8:99:5	-924
:0,32,	-925
:99:14	-926
72:0,72,9	-927
:22:0,22,	-928
▁0/0:39,0:3	-929
:60:0,60,824	-930
▁0/1:15,21:36	-931
▁0/0:35,0:35:8	-932
,0,7	-933
,0,14	-934
,0,69	-935
,60,0	-936
,95,0	-937
1:0,3	-938
4,0,3	-939
8,0,5	-940
:99:71	-941
0:0,20,	-942
3:0,63,6	-943
:63:0,63	-944
:84:0,84,12	-945
▁0/1:19,19:	-946
▁0/1:17,20:3	-947
▁0/1:19,20:3	-948
▁0/1:20,17:3	-949
:56	-950
72,0	-951
,0,13	-952
8,0,4	-953
4:0,64	-954
:25:99:4	-955
:47:99:1	-956
▁0/1:11,	-957
▁0/1:12,2	-958
▁1/1:0,47	-959
:63:0,63,6	-960
▁0/1:11,16	-961
:61:0,61,75	-962
▁0/0:34,0:34:8	-963
,48	-964
:15	-965
,0,74	-966
,89,0	-967
,11:23	-968
,14:33	-969
:99:72	-970
:24:99:4	-971
:36:99:3	-972
,12:29:99:	-973
:62:0,62,78	-974
▁0/1:12,11:23	-975
▁0/1:19,14:33	-976
,79	-977
,540	-978
57,0	-979
,0,70	-980
90,0,	-981
:0,28	-982
,11:24	-983
:99:75	-984
:99:0,10	-985
:60:0,60,802	-986
:60:0,60,822	-987
▁0/1:13,11:24	-988
▁1/1:0,18:18:54	-989
,0,15	-990
,19:34	-991
0:99:2	-992
3:0,93	-993
5:99:2	-994
:0,23,	-995
▁0/1:5	-996
33:99:5	-997
:93:0,93	-998
▁1/1:0,48	-999
▁0/1:17,22	-1000
▁0/1:18,13	-1001
:60:0,60,857	-1002
:60:0,60,867	-1003
▁0/1:15,19:34	-1004
▁1/1:0,30:30:8	-1005
▁1/1:0,33:33:98	-1006
800	-1007
:53	-1008
1:99	-1009
87,0	-1010
:110	-1011
,0,19	-1012
3,0,5	-1013
,110,0	-1014
0:99:5	-1015
:99:73	-1016
:99:78	-1017
,11:29:99:	-1018
9:0,39,585	-1019
:68:0,68,10	-1020
72:0,72,1080	-1021
:42:0,42,630	-1022
:60:0,60,817	-1023
:60:0,60,894	-1024
▁0/1:15,10:2	-1025
49:99:	-1026
8:99:2	-1027
9:99:6	-1028
42:99:5	-1029
:90:0,90,1	-1030
▁0/1:11,14	-1031
▁0/1:14,19:	-1032
:60:0,60,786	-1033
:60:0,60,805	-1034
:60:0,60,807	-1035
:60:0,60,814	-1036
:60:0,60,816	-1037
:60:0,60,844	-1038
:63:0,63,825	-1039
▁0/1:10,14:24	-1040
▁0/1:20,15:35	-1041
▁1/1:0,19:19:57	-1042
,74	-1043
73,	-1044
81,0	-1045
,1215	-1046
80,0,	-1047
9,0,2	-1048
,15:37	-1049
:50:99:	-1050
:23:99:4	-1051
:48:99:1	-1052
:70:0,70,9	-1053
48:0,48,720	-1054
▁0/1:22,15:37	-1055
▁1/1:0,31:31:92	-1056
:76	-1057
,118	-1058
84,0	-1059
8:0,	-1060
,92,0	-1061
,98,0	-1062
4,0,5	-1063
,101,0	-1064
,135,0	-1065
1:0,61	-1066
8:0,68	-1067
43:99:5	-1068
:61:0,61,79	-1069
:75:0,75,10	-1070
:60:0,60,853	-1071
▁0/1:12,18:3	-1072
▁0/1:14,20:3	-1073
▁0/1:18,21:3	-1074
1:5	-1075
905	-1076
,119	-1077
,20:4	-1078
17:17	-1079
3,0,2	-1080
1:0,31,	-1081
:79:0,79	-1082
:66:0,66,78	-1083
:67:0,67,10	-1084
▁0/1:17,21:	-1085
:60:0,60,740	-1086
:60:0,60,754	-1087
:60:0,60,772	-1088
:60:0,60,801	-1089
:60:0,60,850	-1090
:60:0,60,860	-1091
▁0/1:13,10:2	-1092
▁0/1:15,20:3	-1093
▁0/1:18,20:3	-1094
▁1/1:0,17:17	-1095
▁0/1:10,13:23	-1096
,56	-1097
:83	-1098
,0,75	-1099
70,0,	-1100
,11:28	-1101
,138,0	-1102
3:0,83	-1103
44:99:5	-1104
:99:120	-1105
0:0,60,74	-1106
▁0/1:9,15	-1107
▁0/1:21,14	-1108
:61:0,61,76	-1109
:60:0,60,767	-1110
:60:0,60,793	-1111
:60:0,60,818	-1112
▁0/1:21,17:3	-1113
▁0/1:17,11:28	-1114
:55	-1115
,112	-1116
5,0,3	-1117
,113,0	-1118
1:99:2	-1119
5:0,65	-1120
:28:0,28	-1121
78:0,78,10	-1122
:60:0,60,787	-1123
:60:0,60,821	-1124
:60:0,60,832	-1125
▁0/1:14,10:2	-1126
▁0/1:21,16:3	-1127
▁0/1:13,10:23	-1128
▁1/1:0,29:29:86	-1129
,76	-1130
:79	-1131
6:0,	-1132
77,0	-1133
1,0,2	-1134
10,0,	-1135
7,0,2	-1136
0,1800	-1137
19:99:	-1138
:99:74	-1139
:99:112	-1140
:99:114	-1141
:99:119	-1142
:26:0,26	-1143
0,120,1800	-1144
:62:0,62,7	-1145
:60:0,60,755	-1146
:60:0,60,865	-1147
:63:0,63,905	-1148
▁0/1:10,11:2	-1149
▁0/1:12,19:3	-1150
▁0/1:20,18:3	-1151
▁0/1:10,15:25	-1152
▁1/1:0,17:17:5	-1153
▁1/1:0,27:27:80:	-1154
904	-1155
:13	-1156
,29:	-1157
2,0:	-1158
9,0:	-1159
,0,76	-1160
,116,0	-1161
,22:37	-1162
7:99:2	-1163
▁0/0:9,0:	-1164
,19:40:99:	-1165
3:33:0,33,	-1166
:42:0,42,5	-1167
▁0/1:11,17	-1168
:60:0,60,770	-1169
:60:0,60,771	-1170
:60:0,60,812	-1171
:60:0,60,825	-1172
:60:0,60,829	-1173
:60:0,60,847	-1174
:60:0,60,869	-1175
:60:0,60,870	-1176
:60:0,60,883	-1177
:62:0,62,945	-1178
▁0/1:11,10:2	-1179
▁0/1:13,20:33	-1180
▁0/1:15,22:37	-1181
▁1/1:0,30:30:89:	-1182
350	-1183
71,0	-1184
,80,0	-1185
2:0,6	-1186
,21:37	-1187
4:99:2	-1188
:99:13	-1189
:99:111	-1190
:99:116	-1191
9:49:99:	-1192
,12:31:99:	-1193
▁0/1:11,18	-1194
▁0/1:21,15	-1195
▁0/1:19,21:	-1196
:30:0,30,450	-1197
:51:0,51,765	-1198
:60:0,60,747	-1199
:60:0,60,768	-1200
:60:0,60,773	-1201
:60:0,60,828	-1202
:60:0,60,841	-1203
:60:0,60,866	-1204
:60:0,60,878	-1205
▁0/1:16,20:3	-1206
▁0/1:17,10:2	-1207
▁0/1:16,21:37	-1208
5,0,5	-1209
7,0,6	-1210
8,0,2	-1211
0:99:4	-1212
:26:99:5	-1213
,19:41:99:	-1214
70:0,70,10	-1215
74:0,74,10	-1216
:63:0,63,72	-1217
▁0/1:22,20:	-1218
:60:0,60,782	-1219
:60:0,60,833	-1220
:60:0,60,836	-1221
:60:0,60,852	-1222
:60:0,60,864	-1223
:60:0,60,874	-1224
:60:0,60,877	-1225
:60:0,60,889	-1226
:65:0,65,849	-1227
▁0/1:20,12:32	-1228
▁0/1:20,13:33	-1229
,75	-1230
53,	-1231
:73	-1232
,11:3	-1233
,54,0	-1234
,9:25	-1235
6,0,5	-1236
9,0,6	-1237
:0,44	-1238
,10:26	-1239
2,0:42	-1240
5:0,85	-1241
99,0,3	-1242
22:99:2	-1243
:99:125	-1244
0:50:99:	-1245
:27:99:5	-1246
:39:0,39	-1247
:73:0,73	-1248
:24:0,24,	-1249
▁0/1:9,14	-1250
▁0/1:22,13	-1251
▁0/1:22,18	-1252
:61:0,61,73	-1253
▁0/0:40,0:4	-1254
:60:0,60,790	-1255
:60:0,60,839	-1256
:60:0,60,845	-1257
:60:0,60,892	-1258
▁0/0:42,0:42	-1259
▁0/1:16,9:25	-1260
▁0/1:10,12:22	-1261
▁0/1:16,10:26	-1262
73,9	-1263
0:0,4	-1264
1,0:4	-1265
,104,0	-1266
,107,0	-1267
,13:34	-1268
,141,0	-1269
,22:43	-1270
:99:76	-1271
:99:115	-1272
:99:122	-1273
6:0,66,9	-1274
:29:99:5	-1275
:20:0,20,	-1276
:23:0,23,	-1277
76:0,76,10	-1278
▁0/1:19,22	-1279
▁0/0:41,0:4	-1280
▁0/1:11,11:	-1281
:60:0,60,777	-1282
:60:0,60,779	-1283
:60:0,60,781	-1284
:60:0,60,795	-1285
:60:0,60,798	-1286
:60:0,60,804	-1287
:60:0,60,813	-1288
:60:0,60,819	-1289
:60:0,60,820	-1290
:60:0,60,834	-1291
:60:0,60,858	-1292
:60:0,60,871	-1293
:60:0,60,891	-1294
▁0/1:10,10:2	-1295
▁0/1:21,18:3	-1296
:75:0,75,1125	-1297
▁0/1:12,20:32	-1298
▁0/1:21,13:34	-1299
▁0/1:21,22:43	-1300
:99:0,120,1800	-1301
▁0/0:36,0:36:8	-1302
:71	-1303
,86,0	-1304
,8:22	-1305
:99:7	-1306
,0,406	-1307
3:0,33,	-1308
45:0,45	-1309
▁1/1:1,3	-1310
:71:0,71,9	-1311
:62:0,62,79	-1312
:66:0,66,10	-1313
:60:0,60,744	-1314
:60:0,60,758	-1315
:60:0,60,761	-1316
:60:0,60,762	-1317
:60:0,60,796	-1318
:60:0,60,876	-1319
▁0/1:14,8:22	-1320
▁0/1:19,11:3	-1321
▁0/1:22,17:3	-1322
▁0/1:10,16:26	-1323
2:0,	-1324
:71:	-1325
2,0,2	-1326
:0,46	-1327
,23:42	-1328
1:99:4	-1329
▁0/1:3	-1330
7:99:12	-1331
:28:99:5	-1332
:61:0,61,6	-1333
▁0/1:18,22	-1334
:61:0,61,74	-1335
:64:0,64,10	-1336
▁0/1:12,9:2	-1337
▁0/1:9,11:2	-1338
78:0,78,1170	-1339
:60:0,60,750	-1340
:60:0,60,769	-1341
:60:0,60,778	-1342
:60:0,60,811	-1343
:60:0,60,815	-1344
:60:0,60,848	-1345
:63:0,63,817	-1346
▁0/1:19,23:42	-1347
▁0/0:20,0:20:3	-1348
▁1/1:0,25:25:74	-1349
▁1/1:0,49:49:99:	-1350
136	-1351
,83,0	-1352
,9:23	-1353
00,0,	-1354
22:42	-1355
,22:38	-1356
4:0,34	-1357
81,0,3	-1358
0:0,60,78	-1359
▁0/1:9,12	-1360
8:38:99:13	-1361
:63:0,63,70	-1362
:65:0,65,10	-1363
:60:0,60,732	-1364
:60:0,60,757	-1365
:60:0,60,764	-1366
:60:0,60,794	-1367
:60:0,60,799	-1368
:60:0,60,830	-1369
:60:0,60,851	-1370
:60:0,60,854	-1371
:60:0,60,957	-1372
▁0/1:14,9:23	-1373
▁0/1:21,20:4	-1374
▁0/1:16,22:38	-1375
▁0/1:18,16:34	-1376
▁0/1:20,22:42	-1377
▁1/1:0,26:26:77	-1378
▁1/1:0,28:28:83	-1379
▁1/1:0,50:50:99:	-1380
360	-1381
903	-1382
,0:8	-1383
,1305	-1384
,74,0	-1385
60,0,	-1386
,144,0	-1387
1:0,21	-1388
43,0,3	-1389
:99:64	-1390
8:21:99:	-1391
:33:0,33,495	-1392
:60:0,60,759	-1393
:60:0,60,780	-1394
:60:0,60,827	-1395
:60:0,60,837	-1396
:60:0,60,873	-1397
:60:0,60,879	-1398
:63:0,63,804	-1399
:63:0,63,853	-1400
▁0/1:22,16:3	-1401
▁0/0:40,0:40:	-1402
▁0/1:20,14:34	-1403
▁0/1:13,8:21:99:	-1404
▁0/1:9,12:21:99:	-1405
,70	-1406
,73	-1407
:57	-1408
1:34	-1409
8:18	-1410
6,0,2	-1411
,0,423	-1412
,122,0	-1413
0:99:6	-1414
13,0,3	-1415
71,0,4	-1416
2:0,32,	-1417
:49:99:	-1418
1:0,21,2	-1419
3:0,63,9	-1420
42:0,42,	-1421
4:0,64,9	-1422
:38:99:3	-1423
:41:99:6	-1424
:42:99:4	-1425
:77:0,77	-1426
:99:0,11	-1427
1:0,21,315	-1428
1:30:0,30,	-1429
:62:0,62,10	-1430
:66:0,66,76	-1431
:45:0,45,675	-1432
:60:0,60,756	-1433
:60:0,60,765	-1434
:60:0,60,809	-1435
:60:0,60,831	-1436
:60:0,60,846	-1437
:60:0,60,872	-1438
:60:0,60,888	-1439
:61:0,61,945	-1440
:63:0,63,830	-1441
▁0/1:10,8:18	-1442
▁0/1:17,22:3	-1443
:84:0,84,1260	-1444
▁0/1:13,21:34	-1445
▁1/1:0,23:23:68	-1446
,49	-1447
,907	-1448
1:0,4	-1449
30,0,	-1450
5,0,2	-1451
,0,110	-1452
16,0,3	-1453
19,0,3	-1454
72,0,3	-1455
:40:99	-1456
:99:80	-1457
45:99:5	-1458
:99:126	-1459
9:29:99:	-1460
:23:99:2	-1461
:25:99:5	-1462
:26:99:2	-1463
:40:99:6	-1464
,8:19:99:	-1465
0:0,60,695	-1466
▁0/1:23,18	-1467
:61:0,61,10	-1468
:63:0,63,71	-1469
:93:0,93,13	-1470
▁0/1:12,21:	-1471
▁0/1:21,21:	-1472
:48:0,48,720	-1473
:60:0,60,700	-1474
:60:0,60,776	-1475
:60:0,60,792	-1476
:60:0,60,803	-1477
:60:0,60,862	-1478
:60:0,60,863	-1479
:63:0,63,838	-1480
:63:0,63,882	-1481
▁0/1:23,16:3	-1482
▁0/1:16,16:32	-1483
▁1/1:0,22:22:65	-1484
▁0/1:11,8:19:99:	-1485
,45	-1486
138	-1487
908	-1488
,10:3	-1489
,68,0	-1490
20,0,	-1491
40,0,	-1492
8,0:8	-1493
,119,0	-1494
,147,0	-1495
0,90,0	-1496
0,99,0	-1497
11,0,3	-1498
18,0,3	-1499
48,0,4	-1500
76,0,3	-1501
:51:99:	-1502
▁0/1:30,	-1503
▁0/1:9,16	-1504
▁0/0:8,0:8	-1505
▁0/1:23,17	-1506
:27:0,27,405	-1507
:36:0,36,540	-1508
:60:0,60,753	-1509
:60:0,60,763	-1510
:60:0,60,774	-1511
:60:0,60,800	-1512
:60:0,60,843	-1513
:60:0,60,875	-1514
:60:0,60,893	-1515
:63:0,63,842	-1516
:63:0,63,880	-1517
:63:0,63,889	-1518
▁0/1:20,10:3	-1519
▁0/1:10,18:28	-1520
▁0/1:9,11:20:99:	-1521
726	-1522
:70	-1523
:89	-1524
:94	-1525
,0:44	-1526
,57,0	-1527
,77,0	-1528
16:16	-1529
4,0,2	-1530
,0,445	-1531
,0,452	-1532
,0,460	-1533
,21:35	-1534
14,0,4	-1535
3,81,0	-1536
3,96,0	-1537
48,0,3	-1538
61,0,3	-1539
73,0,4	-1540
74,0,4	-1541
:0,43,	-1542
32:99:2	-1543
44,0:44	-1544
:25:99:2	-1545
0:0,60,758	-1546
:21:0,21,2	-1547
▁0/1:22,14	-1548
45:0,45,675	-1549
:63:0,63,10	-1550
▁0/1:22,21:	-1551
▁0/1:23,21:	-1552
81:0,81,1215	-1553
:60:0,60,736	-1554
:60:0,60,775	-1555
:60:0,60,797	-1556
:60:0,60,881	-1557
:60:0,60,896	-1558
:63:0,63,901	-1559
▁0/0:44,0:44	-1560
▁0/1:20,11:3	-1561
▁1/1:0,16:16	-1562
▁0/1:14,21:35	-1563
▁0/0:15,0:15:3	-1564
,42	-1565
139	-1566
▁002	-1567
,0,79	-1568
,0,80	-1569
24:44	-1570
6,0,6	-1571
:0,37	-1572
:0,47	-1573
,0,450	-1574
01,0,4	-1575
11,0,5	-1576
2:0,62	-1577
32,0,3	-1578
42,0,4	-1579
54,0,3	-1580
6:0,96	-1581
76,0,5	-1582
78,0,3	-1583
84,0,3	-1584
99,0,5	-1585
▁0/1:4	-1586
1:99:46	-1587
77:0,77	-1588
:99:146	-1589
:99:148	-1590
:37:99:3	-1591
:96:0,96	-1592
0:0,60,80	-1593
1:0,61,10	-1594
51:0,51,6	-1595
75:0,75,9	-1596
▁0/1:10,2	-1597
0:0,60,697	-1598
:45:0,45,5	-1599
▁0/1:13,9:	-1600
▁0/1:17,23	-1601
:90:0,90,11	-1602
▁0/1:11,9:2	-1603
▁0/1:23,20:	-1604
:60:0,60,785	-1605
:60:0,60,788	-1606
:60:0,60,808	-1607
:60:0,60,810	-1608
:60:0,60,880	-1609
:60:0,60,890	-1610
:63:0,63,920	-1611
:63:0,63,933	-1612
▁0/1:17,16:33	-1613
▁0/1:17,21:38	-1614
▁0/1:20,24:44	-1615
▁1/1:0,16:16:48	-1616
▁0/0:40,0:40:99:	-1617
,1108	-1618
,9:24	-1619
23:43	-1620
,0,455	-1621
,22:36	-1622
0,96,0	-1623
02,0,4	-1624
3,90,0	-1625
35,0,4	-1626
36,0,3	-1627
39,0,3	-1628
46,0,3	-1629
72,0,5	-1630
76,0,4	-1631
77,0,3	-1632
84,0,4	-1633
88,0,3	-1634
:41:99	-1635
1:99:45	-1636
27:0,27,	-1637
5:0,65,9	-1638
:22:99:3	-1639
:44:0,44	-1640
71:0,71,9	-1641
7:0,67,10	-1642
9:0,69,10	-1643
0:0,60,674	-1644
0:0,60,685	-1645
:45:0,45,6	-1646
:75:0,75,8	-1647
▁0/1:24,18	-1648
,10:28:99:2	-1649
:62:0,62,76	-1650
▁0/1:21,11:	-1651
▁0/1:25,19:	-1652
▁1/1:0,51:5	-1653
:60:0,60,731	-1654
:60:0,60,743	-1655
:60:0,60,746	-1656
:60:0,60,752	-1657
:60:0,60,838	-1658
:60:0,60,886	-1659
:60:0,60,887	-1660
:63:0,63,801	-1661
:63:0,63,885	-1662
:69:0,69,857	-1663
▁0/1:15,9:24	-1664
:78:0,78,1170	-1665
▁0/1:10,17:27	-1666
▁0/1:14,22:36	-1667
▁0/1:20,23:43	-1668
▁0/0:37,0:37:8	-1669
▁0/0:39,0:39:99:	-1670
485	-1671
50,	-1672
705	-1673
901	-1674
995	-1675
:86	-1676
0:99	-1677
99,0	-1678
,0,86	-1679
,20:2	-1680
,65,0	-1681
,0,417	-1682
,0,451	-1683
,22:44	-1684
08,0,4	-1685
34,0,5	-1686
43,0,4	-1687
45,0,3	-1688
6:0,36	-1689
72,0,2	-1690
74,0,5	-1691
81,0,4	-1692
99,0,4	-1693
:99:18	-1694
1:0,41,	-1695
79:0,79	-1696
:99:106	-1697
:99:110	-1698
:24:99:2	-1699
:45:99:6	-1700
54:0,54,6	-1701
7:0,87,12	-1702
▁0/1:8,13	-1703
▁0/1:9,17	-1704
,10:19:99:	-1705
0:0,60,696	-1706
0:0,60,700	-1707
0:0,60,736	-1708
,13:30:99:3	-1709
9:0,69,1035	-1710
:65:0,65,78	-1711
:60:0,60,784	-1712
:60:0,60,791	-1713
:60:0,60,885	-1714
:62:0,62,871	-1715
:63:0,63,829	-1716
:63:0,63,840	-1717
:90:0,90,1350	-1718
▁0/0:39,0:39:	-1719
▁0/1:22,22:44	-1720
▁0/1:8,13:21:99:	-1721
▁0/1:9,10:19:99:	-1722
,46	-1723
135	-1724
329	-1725
333	-1726
702	-1727
909	-1728
,0,89	-1729
22:35	-1730
50,0,	-1731
8,0,6	-1732
,0,453	-1733
,0,554	-1734
,150,0	-1735
,21:46	-1736
07,0,3	-1737
16,0,5	-1738
17,0,3	-1739
17,0,4	-1740
18,0,4	-1741
3,99,0	-1742
33,0,3	-1743
47,0,3	-1744
62,0,3	-1745
71,0,3	-1746
85,0,4	-1747
8:0,38	-1748
95,0,5	-1749
97,0,4	-1750
9:0,89	-1751
0,102,0	-1752
:99:105	-1753
9:19:99:	-1754
:22:99:4	-1755
:27:99:2	-1756
:28:99:2	-1757
▁0/1:22,	-1758
:29:99:44	-1759
▁0/1:15,8	-1760
,10:29:99:	-1761
,16:40:99:	-1762
:71:0,71,8	-1763
▁0/1:18,23	-1764
7:0,87,1305	-1765
:64:0,64,78	-1766
▁0/0:9,0:9:	-1767
▁0/1:23,19:	-1768
▁0/1:24,19:	-1769
▁0/1:25,20:	-1770
▁0/1:8,10:1	-1771
75:0,75,1125	-1772
:60:0,60,710	-1773
:60:0,60,826	-1774
:60:0,60,861	-1775
:60:0,60,895	-1776
:63:0,63,836	-1777
:63:0,63,843	-1778
:63:0,63,847	-1779
▁0/1:11,19:3	-1780
▁0/1:13,22:35	-1781
▁0/1:25,21:46	-1782
▁0/1:10,9:19:99:	-1783
▁0/1:12,9:21:99:	-1784
▁1/1:0,24:24:71:	-1785
0,5	-1786
304	-1787
35,5	-1788
54,0	-1789
,0,84	-1790
0,132	-1791
23:36	-1792
4,0,6	-1793
,0,454	-1794
,0,457	-1795
04,0,3	-1796
12,0,4	-1797
15,0,3	-1798
17,0,5	-1799
3,87,0	-1800
3,93,0	-1801
35,0,3	-1802
42,0,3	-1803
49,0,3	-1804
68,0,5	-1805
79,0,2	-1806
79,0,5	-1807
7:99:3	-1808
98,0,3	-1809
0,111,0	-1810
1,102,0	-1811
33:0,33,	-1812
:18:99:1	-1813
:43:99:4	-1814
:99:0,99	-1815
42:0,42,6	-1816
4:0,64,10	-1817
:32:0,32,	-1818
▁0/1:8,15	-1819
:48:0,48,6	-1820
▁0/1:23,22	-1821
,12:30:99:3	-1822
,13:29:99:3	-1823
:66:0,66,75	-1824
:79:0,79,10	-1825
:60:0,60,724	-1826
:60:0,60,738	-1827
:60:0,60,840	-1828
:60:0,60,856	-1829
:60:0,60,868	-1830
:60:0,60,884	-1831
:62:0,62,824	-1832
:63:0,63,799	-1833
:63:0,63,811	-1834
:63:0,63,831	-1835
:63:0,63,862	-1836
:66:0,66,883	-1837
:63:0,63,1108	-1838
▁0/1:13,23:36	-1839
▁0/1:17,22:39:99	-1840
▁1/1:0,31:31:99:	-1841
52,	-1842
:88	-1843
▁007	-1844
14:14	-1845
,0,458	-1846
,0,459	-1847
,0,500	-1848
,128,0	-1849
01,0,3	-1850
05,0,3	-1851
09,0,3	-1852
1,69,0	-1853
1,99,0	-1854
17,0,2	-1855
35,0,5	-1856
38,0,3	-1857
45,0,4	-1858
47,0,4	-1859
68,0,4	-1860
71,0,5	-1861
75,0,3	-1862
78,0,4	-1863
79,0,3	-1864
85,0,3	-1865
86,0,5	-1866
93,0,5	-1867
96,0,5	-1868
9:99:4	-1869
0:99:46	-1870
2,102,0	-1871
:40:0,4	-1872
:99:149	-1873
▁0/1:31	-1874
7:19:99:	-1875
8:0,68,9	-1876
9:0,69,9	-1877
0:40:99:5	-1878
74:0,74,9	-1879
:29:99:39	-1880
:41:0,41,	-1881
▁0/1:8,14	-1882
▁0/1:9,13	-1883
84:0,84,10	-1884
▁0/1:21,24	-1885
:64:0,64,90	-1886
:60:0,60,725	-1887
:60:0,60,734	-1888
:60:0,60,741	-1889
:63:0,63,774	-1890
:63:0,63,787	-1891
:63:0,63,834	-1892
:63:0,63,874	-1893
:63:0,63,896	-1894
:63:0,63,897	-1895
:63:0,63,902	-1896
:63:0,63,966	-1897
:66:0,66,877	-1898
▁1/1:0,14:14	-1899
▁0/1:21,15:36	-1900
▁0/0:14,0:14:24	-1901
▁0/1:12,7:19:99:	-1902
▁1/1:0,51:51:99:	-1903
,30:	-1904
,909	-1905
:101	-1906
▁003	-1907
,0,85	-1908
,51,0	-1909
,71,0	-1910
,9:17	-1911
52:52	-1912
,0,280	-1913
,0,294	-1914
,125,0	-1915
,12:34	-1916
,23:37	-1917
,25:46	-1918
0,93,0	-1919
03,0,3	-1920
05,0,4	-1921
06,0,3	-1922
12,0,5	-1923
14,0,3	-1924
21,0,3	-1925
24,0,2	-1926
27,0,5	-1927
2:0,82	-1928
3,78,0	-1929
3,84,0	-1930
32,0,5	-1931
33,0,4	-1932
44,0,4	-1933
6,99,0	-1934
68,0,3	-1935
73,0,3	-1936
75,0,5	-1937
77,0,4	-1938
86,0,3	-1939
87,0,3	-1940
89,0,4	-1941
97,0,3	-1942
9:0,49	-1943
:99:20	-1944
:99:85	-1945
1,111,0	-1946
22:99:3	-1947
73:0,73	-1948
:99:113	-1949
▁0/1:32	-1950
1:0,61,9	-1951
22:0,22,	-1952
:23:99:1	-1953
:24:0,24	-1954
:37:0,37	-1955
:46:0,46	-1956
0:0,60,86	-1957
0:0,80,10	-1958
8:0,68,10	-1959
,11:19:99:	-1960
,15:39:99:	-1961
0:0,60,665	-1962
0:0,60,682	-1963
0:0,60,683	-1964
0:0,60,688	-1965
0:0,60,702	-1966
0:0,60,704	-1967
0:0,60,709	-1968
0:0,60,716	-1969
0:0,60,722	-1970
71:0,71,10	-1971
▁0/1:15,24	-1972
▁0/1:15,25	-1973
▁0/1:24,14	-1974
:66:0,66,73	-1975
:66:0,66,79	-1976
:70:0,70,10	-1977
:78:0,78,10	-1978
▁0/1:24,20:	-1979
▁0/1:8,9:17	-1980
:60:0,60,760	-1981
:60:0,60,766	-1982
:60:0,60,859	-1983
:60:0,60,906	-1984
:61:0,61,848	-1985
:61:0,61,894	-1986
:62:0,62,856	-1987
:63:0,63,845	-1988
:63:0,63,849	-1989
:63:0,63,876	-1990
:66:0,66,804	-1991
:66:0,66,806	-1992
▁1/1:0,52:52	-1993
:93:0,93,1395	-1994
▁0/1:14,23:37	-1995
▁0/1:21,25:46	-1996
▁0/1:22,12:34	-1997
▁0/1:11,9:20:99:	-1998
▁0/1:8,11:19:99:	-1999
▁1/1:0,26:26:78:	-2000
385	-2001
388	-2002
755	-2003
,113	-2004
0:43	-2005
51,0	-2006
,48,0	-2007
,7:22	-2008
,9:18	-2009
,9:27	-2010
:0,55	-2011
,0,299	-2012
,153,0	-2013
,24:43	-2014
,25:43	-2015
0,81,0	-2016
02,0,5	-2017
08,0,5	-2018
12,0,3	-2019
13,0,4	-2020
16,0,4	-2021
17,0,6	-2022
19,0,5	-2023
3,72,0	-2024
31,0,3	-2025
38,0,5	-2026
39,0,4	-2027
41,0,3	-2028
44,0,3	-2029
45,0,5	-2030
46,0,4	-2031
48,0,5	-2032
52,0,3	-2033
5:99:6	-2034
7,99,0	-2035
73,0,5	-2036
74,0,3	-2037
78,0,5	-2038
79,0,4	-2039
87,0,5	-2040
89,0,5	-2041
91,0,3	-2042
92,0,3	-2043
94,0,3	-2044
94,0,5	-2045
98,0,4	-2046
:99:19	-2047
1:99:48	-2048
8,108,0	-2049
73:0,73,	-2050
7:20:99:	-2051
:17:99:2	-2052
:24:99:5	-2053
:41:99:5	-2054
:47:0,47	-2055
:76:0,76	-2056
48:0,48,6	-2057
73:0,73,9	-2058
76:0,76,9	-2059
:31:0,31,	-2060
:43:0,43,	-2061
:48:99:16	-2062
▁0/1:11,7	-2063
▁0/1:8,16	-2064
0:0,60,680	-2065
0:0,60,686	-2066
0:0,60,694	-2067
0:0,60,703	-2068
0:0,60,706	-2069
8:38:99:12	-2070
▁0/1:20,25	-2071
▁0/1:22,23	-2072
▁0/1:23,15	-2073
▁0/1:24,21:	-2074
▁0/1:9,9:18	-2075
:60:0,60,715	-2076
:60:0,60,729	-2077
:60:0,60,739	-2078
:60:0,60,899	-2079
:61:0,61,804	-2080
:61:0,61,854	-2081
:61:0,61,926	-2082
:62:0,62,848	-2083
:63:0,63,764	-2084
:63:0,63,803	-2085
:63:0,63,816	-2086
:63:0,63,884	-2087
▁0/0:9,0:9:2	-2088
▁0/1:15,7:22	-2089
▁0/1:18,9:27	-2090
▁0/1:12,21:33	-2091
▁0/1:18,25:43	-2092
▁0/1:19,24:43	-2093
▁0/0:41,0:41:99:	-2094
▁0/1:13,7:20:99:	-2095
▁0/1:18,22:40:99	-2096
▁0/1:20,9:29:99:	-2097
▁1/1:0,17:17:51:	-2098
324	-2099
429	-2100
540	-2101
902	-2102
907	-2103
,0:7	-2104
86,0	-2105
:81:	-2106
,0,88	-2107
:0,38	-2108
,0,135	-2109
,0,282	-2110
,0,286	-2111
,0,288	-2112
,131,0	-2113
,137,0	-2114
,24:46	-2115
02,0,3	-2116
09,0,4	-2117
11,0,4	-2118
14,0,5	-2119
15,0,5	-2120
16,0,2	-2121
23,0,3	-2122
25,0,3	-2123
26,0,3	-2124
29,0,3	-2125
29,0,4	-2126
32,0,4	-2127
34,0,3	-2128
36,0,4	-2129
37,0,5	-2130
46,0,5	-2131
54,0,4	-2132
56,0,3	-2133
61,0,5	-2134
7:0,37	-2135
89,0,3	-2136
91,0,4	-2137
91,0,5	-2138
92,0,4	-2139
96,0,3	-2140
:49:99	-2141
0,120,0	-2142
1:99:29	-2143
2,105,0	-2144
:99:128	-2145
0:0,60,5	-2146
7:0,67,9	-2147
:40:99:5	-2148
:44:99:4	-2149
0:0,60,79	-2150
0:0,80,11	-2151
84:0,84,9	-2152
:25:0,25,	-2153
:29:99:42	-2154
▁0/1:16,8	-2155
▁0/1:8,12	-2156
0:0,60,670	-2157
0:0,60,711	-2158
0:0,60,735	-2159
84:0,84,12	-2160
:74:0,74,9	-2161
▁0/1:17,24	-2162
▁0/1:23,12	-2163
▁0/1:23,14	-2164
▁0/1:24,17	-2165
▁0/1:25,18	-2166
,15:30:99:4	-2167
,15:31:99:4	-2168
42:0,42,630	-2169
70:0,70,995	-2170
:69:0,69,90	-2171
:60:0,60,713	-2172
:60:0,60,716	-2173
:60:0,60,751	-2174
:60:0,60,823	-2175
:60:0,60,842	-2176
:60:0,60,882	-2177
:60:0,60,897	-2178
:61:0,61,778	-2179
:63:0,63,730	-2180
:63:0,63,753	-2181
:63:0,63,778	-2182
:63:0,63,790	-2183
:63:0,63,791	-2184
:63:0,63,797	-2185
:63:0,63,820	-2186
:63:0,63,854	-2187
:63:0,63,863	-2188
:63:0,63,871	-2189
:63:0,63,887	-2190
:63:0,63,935	-2191
:66:0,66,813	-2192
:66:0,66,957	-2193
▁0/1:11,20:3	-2194
▁0/1:17,17:34	-2195
▁0/1:22,24:46	-2196
▁0/0:19,0:19:3	-2197
▁1/1:0,14:14:42	-2198
▁0/1:8,12:20:99:	-2199
▁0/1:8,9:17:99:2	-2200
▁1/1:0,20:20:60:	-2201
331	-2202
397	-2203
577	-2204
707	-2205
719	-2206
931	-2207
:69	-2208
70,9	-2209
95,0	-2210
15:15	-2211
23:46	-2212
:0,94	-2213
,0,244	-2214
,0,256	-2215
,0,263	-2216
,0,267	-2217
,109,0	-2218
,22:47	-2219
,23:38	-2220
,23:44	-2221
,24:42	-2222
,25:44	-2223
0,69,0	-2224
03,0,4	-2225
06,0,5	-2226
07,0,4	-2227
07,0,5	-2228
08,0,3	-2229
1,63,0	-2230
1,78,0	-2231
18,0,5	-2232
22,0,3	-2233
22,0,4	-2234
27,0,4	-2235
34,0,4	-2236
34,0,6	-2237
37,0,3	-2238
38,0,4	-2239
42,0,5	-2240
55,0,4	-2241
57,0,3	-2242
5:99:3	-2243
66,0,3	-2244
69,0,3	-2245
6:0,86	-2246
77,0,5	-2247
82,0,3	-2248
:99:86	-2249
0,117,0	-2250
0:99:48	-2251
1:99:28	-2252
2,108,0	-2253
8,102,0	-2254
:99:155	-2255
24:0,24,	-2256
7:99:126	-2257
:29:99:3	-2258
▁1/1:0,6	-2259
9:39:99:5	-2260
:26:99:45	-2261
:47:99:16	-2262
0:0,60,690	-2263
0:0,60,692	-2264
0:0,60,698	-2265
0:0,60,713	-2266
0:0,60,720	-2267
3:0,63,945	-2268
73:0,73,10	-2269
:25:0,25,5	-2270
:30:0,30,4	-2271
:65:0,65,7	-2272
▁0/1:21,26	-2273
▁0/1:24,13	-2274
▁0/1:26,18	-2275
1:0,81,1215	-2276
:62:0,62,73	-2277
:69:0,69,79	-2278
▁0/1:9,21:3	-2279
,13:29:99:36	-2280
,13:30:99:36	-2281
,14:31:99:39	-2282
,15:31:99:42	-2283
:60:0,60,708	-2284
:60:0,60,723	-2285
:60:0,60,726	-2286
:60:0,60,728	-2287
:60:0,60,749	-2288
:61:0,61,766	-2289
:61:0,61,871	-2290
:62:0,62,861	-2291
:63:0,63,760	-2292
:63:0,63,779	-2293
:63:0,63,784	-2294
:63:0,63,795	-2295
:63:0,63,814	-2296
:63:0,63,828	-2297
:63:0,63,848	-2298
:63:0,63,865	-2299
:63:0,63,891	-2300
:63:0,63,895	-2301
:66:0,66,918	-2302
:66:0,66,954	-2303
▁0/1:10,19:2	-2304
▁1/1:0,15:15	-2305
▁0/1:15,23:38	-2306
▁0/1:17,20:37	-2307
▁0/1:18,24:42	-2308
▁0/1:19,19:38	-2309
▁0/1:19,25:44	-2310
▁0/1:21,17:38	-2311
▁0/1:21,23:44	-2312
▁0/1:22,21:43	-2313
▁0/1:22,23:45	-2314
▁0/1:23,23:46	-2315
▁0/1:25,22:47	-2316
▁0/0:10,0:10:27	-2317
132	-2318
257	-2319
357	-2320
387	-2321
393	-2322
430	-2323
715	-2324
952	-2325
:87	-2326
:96	-2327
41,0	-2328
▁006	-2329
,0,99	-2330
,0:14	-2331
,1135	-2332
,1485	-2333
,9:16	-2334
,9:28	-2335
,0,246	-2336
,0,279	-2337
,0,281	-2338
,0,283	-2339
,0,293	-2340
,0,297	-2341
,0,456	-2342
,0,551	-2343
,11:18	-2344
,156,0	-2345
,18:45	-2346
,19:28	-2347
,21:32	-2348
,22:34	-2349
,23:47	-2350
0,0,36	-2351
09,0,5	-2352
19,0,4	-2353
26,0,5	-2354
27,0,3	-2355
3,75,0	-2356
41,0,4	-2357
64,0,3	-2358
67,0,4	-2359
69,0,5	-2360
72,0,4	-2361
75,0,4	-2362
75,0,6	-2363
83,0,4	-2364
83,0,5	-2365
90,0,6	-2366
90:0,9	-2367
93,0,3	-2368
93,0,4	-2369
95,0,3	-2370
9:0,59	-2371
3,111,0	-2372
46:0,46	-2373
5,102,0	-2374
5:99:45	-2375
:0,27,5	-2376
:99:123	-2377
:99:142	-2378
:99:347	-2379
2:0,62,9	-2380
:14,0:14	-2381
:14:99:1	-2382
:15:99:1	-2383
:54:0,54	-2384
▁0/1:21,	-2385
,7:21:99:	-2386
1:0,81,10	-2387
:26:0,26,	-2388
:29:99:45	-2389
:29:99:46	-2390
▁0/1:17,8	-2391
▁0/1:19,8	-2392
▁0/1:7,12	-2393
▁0/1:9,18	-2394
0:0,60,640	-2395
0:0,60,661	-2396
0:0,60,663	-2397
0:0,60,678	-2398
0:0,60,681	-2399
0:0,60,693	-2400
0:0,60,718	-2401
0:0,60,725	-2402
0:0,60,734	-2403
0:0,60,738	-2404
81:0,81,10	-2405
:36:0,36,5	-2406
:64:0,64,7	-2407
:66:0,66,6	-2408
▁0/1:23,13	-2409
,12:29:99:3	-2410
:66:0,66,74	-2411
:71:0,71,10	-2412
:77:0,77,10	-2413
▁0/1:7,9:16	-2414
:21:0,21,315	-2415
:60:0,60,688	-2416
:60:0,60,735	-2417
:60:0,60,898	-2418
:61:0,61,852	-2419
:62:0,62,874	-2420
:63:0,63,750	-2421
:63:0,63,822	-2422
:63:0,63,846	-2423
:63:0,63,856	-2424
:63:0,63,867	-2425
:63:0,63,869	-2426
:63:0,63,870	-2427
:63:0,63,906	-2428
:63:0,63,914	-2429
:63:0,63,921	-2430
:63:0,63,941	-2431
:66:0,66,882	-2432
:66:0,66,935	-2433
▁0/1:12,26:3	-2434
▁0/1:19,9:28	-2435
▁0/1:7,11:18	-2436
▁0/1:9,19:28	-2437
▁0/1:11,21:32	-2438
▁0/1:12,22:34	-2439
▁0/1:14,20:34	-2440
▁0/1:16,18:34	-2441
▁0/1:18,20:38	-2442
▁0/1:19,17:36	-2443
▁0/1:20,25:45	-2444
▁0/1:21,21:42	-2445
▁0/1:21,24:45	-2446
▁0/1:21,26:47	-2447
▁0/1:24,23:47	-2448
▁0/1:27,18:45	-2449
▁1/1:0,15:15:45	-2450
▁0/1:14,7:21:99:	-2451
▁0/1:7,12:19:99:	-2452
,44	-2453
351	-2454
382	-2455
392	-2456
394	-2457
402	-2458
404	-2459
441	-2460
458	-2461
542	-2462
558	-2463
7,1	-2464
751	-2465
963	-2466
0:53	-2467
65,0	-2468
:111	-2469
▁009	-2470
,0:45	-2471
,0:46	-2472
,1111	-2473
25:48	-2474
5,0,6	-2475
53:53	-2476
,0,239	-2477
,0,240	-2478
,0,262	-2479
,0,265	-2480
,0,275	-2481
,0,721	-2482
,103,0	-2483
,11:34	-2484
,143,0	-2485
,21:47	-2486
,24:48	-2487
0,87,0	-2488
00,0,6	-2489
01,0,5	-2490
03,0,5	-2491
1,72,0	-2492
1,75,0	-2493
2,99,0	-2494
24,0,3	-2495
3,0:13	-2496
33,0,5	-2497
43,0,5	-2498
48,0,6	-2499
57,0,4	-2500
7,69,0	-2501
84,0,6	-2502
9,99,0	-2503
95,0,4	-2504
:99:89	-2505
:99:99	-2506
0:99:54	-2507
1,105,0	-2508
1,108,0	-2509
1:0,61,	-2510
1:99:30	-2511
45,0:45	-2512
46,0:46	-2513
6,117,0	-2514
7,108,0	-2515
7:99:10	-2516
▁0/1:34	-2517
2:0,32,5	-2518
7:99:125	-2519
9:0,39,6	-2520
:13,0:13	-2521
:17:99:1	-2522
:25:99:1	-2523
:34:0,34	-2524
:49:0,49	-2525
:94:0,94	-2526
▁0/1:9,8	-2527
,8:20:99:	-2528
6:0,66,10	-2529
:27:99:45	-2530
:29:0,29,	-2531
:29:99:40	-2532
▁0/1:30,1	-2533
,14:39:99:	-2534
0:0,60,630	-2535
0:0,60,666	-2536
0:0,60,675	-2537
0:0,60,676	-2538
0:0,60,679	-2539
0:0,60,699	-2540
0:0,60,723	-2541
0:0,60,744	-2542
0:0,60,763	-2543
3:0,33,495	-2544
6:0,66,990	-2545
79:0,79,10	-2546
:22:0,22,5	-2547
:78:0,78,9	-2548
▁0/1:16,24	-2549
▁0/1:16,25	-2550
▁0/1:24,26	-2551
:65:0,65,73	-2552
:68:0,68,90	-2553
:24:0,24,360	-2554
:60:0,60,668	-2555
:60:0,60,679	-2556
:60:0,60,692	-2557
:60:0,60,697	-2558
:60:0,60,703	-2559
:60:0,60,727	-2560
:60:0,60,742	-2561
:60:0,60,745	-2562
:60:0,60,783	-2563
:61:0,61,806	-2564
:61:0,61,861	-2565
:61:0,61,874	-2566
:63:0,63,759	-2567
:63:0,63,788	-2568
:63:0,63,833	-2569
:63:0,63,839	-2570
:63:0,63,841	-2571
:63:0,63,850	-2572
:63:0,63,857	-2573
:63:0,63,866	-2574
:63:0,63,875	-2575
:63:0,63,886	-2576
:63:0,63,888	-2577
:63:0,63,890	-2578
:63:0,63,898	-2579
:63:0,63,907	-2580
:63:0,63,911	-2581
:63:0,63,926	-2582
:64:0,64,833	-2583
:65:0,65,990	-2584
:66:0,66,875	-2585
:66:0,66,904	-2586
:66:0,66,965	-2587
:66:0,66,974	-2588
▁0/0:45,0:45	-2589
▁0/0:46,0:46	-2590
▁0/1:21,10:3	-2591
▁1/1:0,53:53	-2592
▁0/0:41,0:41:	-2593
▁0/1:15,17:32	-2594
▁0/1:16,20:36	-2595
▁0/1:20,17:37	-2596
▁0/1:22,20:42	-2597
▁0/1:23,11:34	-2598
▁0/1:23,19:42	-2599
▁0/1:23,25:48	-2600
▁0/1:24,24:48	-2601
▁0/1:26,21:47	-2602
▁0/0:20,0:20:4	-2603
▁1/1:0,21:21:62	-2604
▁0/1:12,8:20:99:	-2605
354	-2606
358	-2607
363	-2608
431	-2609
452	-2610
484	-2611
487	-2612
489	-2613
548	-2614
550	-2615
706	-2616
714	-2617
941	-2618
:93	-2619
:97	-2620
,752	-2621
74,0	-2622
:100	-2623
:104	-2624
,1101	-2625
,1118	-2626
,1440	-2627
,9:26	-2628
0:106	-2629
24:47	-2630
56:56	-2631
87:0,	-2632
:0,56	-2633
,0,219	-2634
,0,242	-2635
,0,276	-2636
,0,278	-2637
,0,285	-2638
,0,290	-2639
,0,292	-2640
,0,715	-2641
,0,716	-2642
,0,719	-2643
,0,756	-2644
,0,788	-2645
,106,0	-2646
,12:33	-2647
,22:33	-2648
0,66,0	-2649
0,75,0	-2650
0,78,0	-2651
0,84,0	-2652
1:99:3	-2653
22,0,5	-2654
25,0,5	-2655
28,0,4	-2656
2:0,92	-2657
3,0:43	-2658
3,63,0	-2659
3,66,0	-2660
3,69,0	-2661
36,0,5	-2662
54,0,5	-2663
59,0,3	-2664
6,66,0	-2665
60,0,5	-2666
61,0,4	-2667
62,0,4	-2668
64,0,4	-2669
69,0,4	-2670
70,0,5	-2671
77,0,6	-2672
81,0,5	-2673
85,0,5	-2674
8:0,58	-2675
94,0,4	-2676
96,0,4	-2677
:81:11	-2678
:99:79	-2679
0,105,0	-2680
0:99:44	-2681
1:99:44	-2682
4,102,0	-2683
40:99:5	-2684
44:0,44	-2685
4:0,24,	-2686
5:35:0,	-2687
7,105,0	-2688
8,105,0	-2689
87:0,87	-2690
9,108,0	-2691
:99:124	-2692
:99:156	-2693
0:30:99:	-2694
1:0,31,5	-2695
4:0,34,5	-2696
:35:99:2	-2697
:58:0,58	-2698
:92:0,92	-2699
1:41:99:5	-2700
6:36:0,36	-2701
:28:99:45	-2702
:29:99:36	-2703
:29:99:38	-2704
:30:99:39	-2705
:99:0,105	-2706
▁0/1:7,15	-2707
▁0/1:7,16	-2708
▁0/1:8,17	-2709
0:0,60,646	-2710
0:0,60,669	-2711
0:0,60,671	-2712
0:0,60,684	-2713
0:0,60,732	-2714
0:0,60,751	-2715
0:0,60,759	-2716
0:0,60,776	-2717
:29:0,29,4	-2718
:39:0,39,4	-2719
:48:0,48,5	-2720
:70:0,70,8	-2721
:73:0,73,9	-2722
▁0/1:16,23	-2723
▁0/1:19,26	-2724
▁0/1:25,17	-2725
▁0/1:26,17	-2726
▁0/1:27,14	-2727
90:0,90,132	-2728
:73:0,73,10	-2729
:74:0,74,10	-2730
:93:0,93,12	-2731
:60:0,60,693	-2732
:60:0,60,698	-2733
:60:0,60,721	-2734
:60:0,60,730	-2735
:60:0,60,733	-2736
:60:0,60,737	-2737
:60:0,60,945	-2738
:61:0,61,686	-2739
:61:0,61,736	-2740
:61:0,61,781	-2741
:61:0,61,794	-2742
:61:0,61,795	-2743
:61:0,61,889	-2744
:61:0,61,891	-2745
:62:0,62,788	-2746
:62:0,62,829	-2747
:62:0,62,910	-2748
:63:0,63,748	-2749
:63:0,63,780	-2750
:63:0,63,781	-2751
:63:0,63,786	-2752
:63:0,63,794	-2753
:63:0,63,796	-2754
:63:0,63,805	-2755
:63:0,63,813	-2756
:63:0,63,904	-2757
:63:0,63,913	-2758
:63:0,63,936	-2759
:63:0,63,955	-2760
:65:0,65,888	-2761
:65:0,65,958	-2762
:66:0,66,702	-2763
:66:0,66,784	-2764
:66:0,66,905	-2765
:66:0,66,914	-2766
▁0/0:43,0:43	-2767
▁0/1:17,9:26	-2768
▁0/1:19,21:4	-2769
▁1/1:0,56:56	-2770
▁0/1:11,22:33	-2771
▁0/1:12,26:38	-2772
▁0/1:18,18:36	-2773
▁0/1:21,12:33	-2774
▁0/1:23,24:47	-2775
▁0/1:18,21:39:99	-2776
▁0/1:7,9:16:99:2	-2777
,32	-2778
11:	-2779
223	-2780
305	-2781
309	-2782
330	-2783
337	-2784
352	-2785
395	-2786
403	-2787
456	-2788
481	-2789
500	-2790
549	-2791
553	-2792
700	-2793
712	-2794
724	-2795
831	-2796
951	-2797
958	-2798
:67	-2799
:82	-2800
,0:4	-2801
,31:	-2802
,488	-2803
,791	-2804
,906	-2805
:109	-2806
:19:	-2807
:954	-2808
▁005	-2809
,1116	-2810
,1138	-2811
,42,0	-2812
,56,0	-2813
,7:16	-2814
,88,0	-2815
24:37	-2816
26:46	-2817
35:36	-2818
54:54	-2819
7,0:7	-2820
:1021	-2821
,0,220	-2822
,0,234	-2823
,0,238	-2824
,0,245	-2825
,0,252	-2826
,0,254	-2827
,0,261	-2828
,0,298	-2829
,0,714	-2830
,0,731	-2831
,0,744	-2832
,0,760	-2833
,134,0	-2834
,23:35	-2835
,24:36	-2836
,26:44	-2837
04,0,4	-2838
1,0,10	-2839
13,0,5	-2840
15,0,4	-2841
15,0,6	-2842
19,0,6	-2843
2,0,11	-2844
2,63,0	-2845
2,69,0	-2846
21,0,5	-2847
23,0,4	-2848
23,0,5	-2849
24,0,5	-2850
28,0,3	-2851
28,0,5	-2852
37,0,4	-2853
49,0,5	-2854
51,0,3	-2855
63,0,4	-2856
63,0,5	-2857
65,0,3	-2858
67,0,3	-2859
70,0,1	-2860
74,0,6	-2861
79,0,6	-2862
8,69,0	-2863
8,99,0	-2864
83,0,3	-2865
87,0,4	-2866
88,0,4	-2867
88,0,5	-2868
8:0,88	-2869
99,0,6	-2870
:50:0,	-2871
:52:0,	-2872
:53:0,	-2873
:84:12	-2874
0,114,0	-2875
0:99:49	-2876
1:99:49	-2877
1:99:56	-2878
6,111,0	-2879
9,105,0	-2880
9:99:48	-2881
:0,43,6	-2882
:11,0:1	-2883
:99:109	-2884
:99:117	-2885
3:0,33,5	-2886
6:0,36,5	-2887
6:19:99:	-2888
7:99:128	-2889
:30:99:3	-2890
:38:0,38	-2891
:38:99:4	-2892
:57:0,57	-2893
:99:1171	-2894
▁0/1:8,6	-2895
,6:20:99:	-2896
5:0,85,12	-2897
70:0,70,8	-2898
77:0,77,9	-2899
:29:99:48	-2900
:73:0,73,	-2901
▁0/1:10,7	-2902
▁0/1:7,13	-2903
▁0/1:8,18	-2904
0:0,60,649	-2905
0:0,60,656	-2906
0:0,60,659	-2907
0:0,60,660	-2908
0:0,60,677	-2909
0:0,60,687	-2910
0:0,60,701	-2911
0:0,60,710	-2912
0:0,60,712	-2913
0:0,60,721	-2914
0:0,60,724	-2915
0:0,60,730	-2916
0:0,60,731	-2917
0:0,60,737	-2918
0:0,60,767	-2919
0:0,60,846	-2920
1:20:0,20,	-2921
:21:0,21,4	-2922
:23:0,23,5	-2923
:27:0,27,5	-2924
:36:0,36,4	-2925
:62:0,62,6	-2926
▁0/0:7,0:7	-2927
▁0/1:15,26	-2928
▁0/1:26,14	-2929
,11:29:99:2	-2930
27:0,27,405	-2931
:61:0,61,72	-2932
:94:0,94,12	-2933
▁0/1:26,19:	-2934
▁0/1:7,10:1	-2935
▁0/1:9,7:16	-2936
84:0,84,1260	-2937
90:0,90,1323	-2938
:60:0,60,683	-2939
:60:0,60,695	-2940
:60:0,60,706	-2941
:60:0,60,709	-2942
:60:0,60,717	-2943
:60:0,60,720	-2944
:61:0,61,788	-2945
:61:0,61,789	-2946
:61:0,61,811	-2947
:61:0,61,820	-2948
:61:0,61,865	-2949
:61:0,61,869	-2950
:61:0,61,872	-2951
:61:0,61,877	-2952
:62:0,62,777	-2953
:62:0,62,782	-2954
:62:0,62,825	-2955
:62:0,62,840	-2956
:62:0,62,845	-2957
:62:0,62,896	-2958
:62:0,62,913	-2959
:62:0,62,929	-2960
:63:0,63,755	-2961
:63:0,63,765	-2962
:63:0,63,768	-2963
:63:0,63,769	-2964
:63:0,63,775	-2965
:63:0,63,802	-2966
:63:0,63,807	-2967
:63:0,63,823	-2968
:63:0,63,835	-2969
:63:0,63,851	-2970
:63:0,63,855	-2971
:63:0,63,858	-2972
:63:0,63,864	-2973
:63:0,63,873	-2974
:63:0,63,879	-2975
:63:0,63,883	-2976
:63:0,63,893	-2977
:63:0,63,899	-2978
:63:0,63,903	-2979
:63:0,63,918	-2980
:63:0,63,922	-2981
:63:0,63,924	-2982
:63:0,63,931	-2983
:64:0,64,896	-2984
:65:0,65,911	-2985
:66:0,66,850	-2986
:66:0,66,860	-2987
:66:0,66,867	-2988
:66:0,66,870	-2989
:66:0,66,872	-2990
:66:0,66,874	-2991
:66:0,66,876	-2992
:66:0,66,895	-2993
:68:0,68,959	-2994
:72:0,72,856	-2995
:72:0,72,930	-2996
▁1/1:0,54:54	-2997
▁1/1:1,35:36	-2998
▁0/1:12,23:35	-2999
▁0/1:12,24:36	-3000
▁0/1:13,24:37	-3001
▁0/1:15,18:33	-3002
▁0/1:17,15:32	-3003
▁0/1:18,26:44	-3004
▁0/1:19,26:45	-3005
▁0/1:20,26:46	-3006
▁0/1:21,16:37	-3007
▁0/1:23,21:44	-3008
▁0/1:25,19:44	-3009
▁0/0:11,0:11:2	-3010
▁0/0:17,0:17:27	-3011
▁1/1:0,23:23:69	-3012
▁0/1:13,6:19:99:	-3013
▁0/1:14,6:20:99:	-3014
▁0/1:19,22:41:99	-3015
▁0/1:7,13:20:99:	-3016
▁0/1:9,8:17:99:2	-3017
,33	-3018
0,8	-3019
0:8	-3020
125	-3021
152	-3022
173	-3023
3,8	-3024
31:	-3025
322	-3026
332	-3027
340	-3028
349	-3029
359	-3030
362	-3031
380	-3032
391	-3033
396	-3034
400	-3035
409	-3036
428	-3037
555	-3038
563	-3039
596	-3040
598	-3041
716	-3042
718	-3043
809	-3044
889	-3045
:91	-3046
,792	-3047
,900	-3048
45,0	-3049
:112	-3050
:708	-3051
:805	-3052
:885	-3053
:917	-3054
:991	-3055
,1141	-3056
,1146	-3057
,1159	-3058
,1163	-3059
,23:5	-3060
,45,0	-3061
,59,0	-3062
:0:0,	-3063
:1006	-3064
:1054	-3065
,0,183	-3066
,0,196	-3067
,0,199	-3068
,0,225	-3069
,0,230	-3070
,0,237	-3071
,0,255	-3072
,0,274	-3073
,0,287	-3074
,0,295	-3075
,0,607	-3076
,0,693	-3077
,0,694	-3078
,0,717	-3079
,0,722	-3080
,115,0	-3081
,140,0	-3082
,20:48	-3083
,23:52	-3084
,26:42	-3085
04,0,5	-3086
05,0,5	-3087
2,0,69	-3088
2,66,0	-3089
25,0,4	-3090
3,60,0	-3091
4,63,0	-3092
4,99,0	-3093
40,0,4	-3094
51,0,6	-3095
54,0,6	-3096
58,0,3	-3097
59,0,4	-3098
59,0,5	-3099
60,0,3	-3100
61,0,6	-3101
67,0,5	-3102
80,0,6	-3103
81,0,6	-3104
83,0,6	-3105
9,63,0	-3106
9,66,0	-3107
92,0,5	-3108
93,0,6	-3109
:99:96	-3110
0,107,0	-3111
0,123,0	-3112
0,141,0	-3113
0:99:26	-3114
0:99:56	-3115
1:99:38	-3116
1:99:54	-3117
45:99:4	-3118
53,0:53	-3119
7,102,0	-3120
7:99:16	-3121
8,114,0	-3122
9,102,0	-3123
9:99:45	-3124
:0,27,2	-3125
:1070,9	-3126
:99:357	-3127
▁1/1:2,	-3128
1:0,31,6	-3129
5:0,35,5	-3130
:12,0:12	-3131
:18:99:3	-3132
:24:99:1	-3133
:32:99:2	-3134
:59:0,59	-3135
0:0,60,85	-3136
46:0,46,6	-3137
5:25:0,25	-3138
:24:99:45	-3139
:30:99:36	-3140
▁0/1:16,7	-3141
▁0/1:19,6	-3142
0:0,60,631	-3143
0:0,60,652	-3144
0:0,60,658	-3145
0:0,60,662	-3146
0:0,60,691	-3147
0:0,60,708	-3148
0:0,60,726	-3149
0:0,60,727	-3150
0:0,60,761	-3151
0:0,60,820	-3152
0:0,60,834	-3153
80:0,80,10	-3154
:1021,87,0	-3155
:20:0,20,5	-3156
:21:0,21,5	-3157
:74:0,74,8	-3158
:78:0,78,8	-3159
:99:630,0,	-3160
▁0/1:22,25	-3161
▁0/1:23,27	-3162
▁0/1:25,25	-3163
▁0/1:26,15	-3164
▁0/1:27,16	-3165
,10:29:99:2	-3166
,19:41:99:5	-3167
8:38:99:129	-3168
:68:0,68,76	-3169
:69:0,69,76	-3170
:76:0,76,10	-3171
:96:0,96,13	-3172
:99:455,0,4	-3173
72:0,72,1002	-3174
:60:0,60,699	-3175
:60:0,60,705	-3176
:60:0,60,711	-3177
:60:0,60,718	-3178
:61:0,61,825	-3179
:61:0,61,840	-3180
:61:0,61,843	-3181
:61:0,61,846	-3182
:61:0,61,859	-3183
:61:0,61,903	-3184
:61:0,61,921	-3185
:61:0,61,940	-3186
:62:0,62,785	-3187
:62:0,62,812	-3188
:62:0,62,849	-3189
:62:0,62,852	-3190
:62:0,62,866	-3191
:62:0,62,870	-3192
:62:0,62,892	-3193
:62:0,62,899	-3194
:63:0,63,733	-3195
:63:0,63,735	-3196
:63:0,63,741	-3197
:63:0,63,763	-3198
:63:0,63,770	-3199
:63:0,63,789	-3200
:63:0,63,819	-3201
:63:0,63,860	-3202
:63:0,63,861	-3203
:63:0,63,868	-3204
:63:0,63,877	-3205
:63:0,63,892	-3206
:63:0,63,910	-3207
:63:0,63,916	-3208
:63:0,63,925	-3209
:63:0,63,927	-3210
:63:0,63,932	-3211
:63:0,63,934	-3212
:63:0,63,950	-3213
:64:0,64,781	-3214
:64:0,64,990	-3215
:65:0,65,838	-3216
:65:0,65,893	-3217
:66:0,66,808	-3218
:66:0,66,815	-3219
:66:0,66,822	-3220
:66:0,66,827	-3221
:66:0,66,839	-3222
:66:0,66,899	-3223
:66:0,66,915	-3224
:66:0,66,920	-3225
:66:0,66,938	-3226
:69:0,69,942	-3227
:69:0,69,988	-3228
▁0/0:53,0:53	-3229
:72:0,72,1017	-3230
▁0/1:14,18:32	-3231
▁0/1:16,26:42	-3232
▁0/1:23,22:45	-3233
▁0/1:28,20:48	-3234
▁0/1:29,23:52	-3235
▁1/1:0,30:30:93	-3236
▁0/1:9,9:18:99:2	-3237
101	-3238
289	-3239
323	-3240
339	-3241
341	-3242
356	-3243
384	-3244
386	-3245
398	-3246
422	-3247
443	-3248
446	-3249
447	-3250
454	-3251
457	-3252
459	-3253
480	-3254
482	-3255
483	-3256
494	-3257
556	-3258
562	-3259
564	-3260
703	-3261
709	-3262
711	-3263
713	-3264
745	-3265
756	-3266
799	-3267
991	-3268
:0:	-3269
:58	-3270
:95	-3271
0:68	-3272
1,13	-3273
1:32	-3274
38,0	-3275
48,0	-3276
:108	-3277
:807	-3278
:818	-3279
:855	-3280
:869	-3281
:875	-3282
:884	-3283
:937	-3284
:968	-3285
:971	-3286
,0:16	-3287
,1147	-3288
,1148	-3289
,1279	-3290
,1342	-3291
,24:5	-3292
,62,0	-3293
,91,0	-3294
0,0,8	-3295
0,0,9	-3296
0,102	-3297
0:103	-3298
0:59:	-3299
1,0,1	-3300
22:32	-3301
50:0,	-3302
88:0,	-3303
:1074	-3304
:1086	-3305
:821,	-3306
,0,161	-3307
,0,168	-3308
,0,169	-3309
,0,181	-3310
,0,222	-3311
,0,228	-3312
,0,233	-3313
,0,248	-3314
,0,249	-3315
,0,253	-3316
,0,268	-3317
,0,269	-3318
,0,272	-3319
,0,273	-3320
,0,284	-3321
,0,289	-3322
,0,633	-3323
,0,697	-3324
,0,713	-3325
,0,727	-3326
,0,730	-3327
,0,746	-3328
,0,780	-3329
,0,782	-3330
,0,786	-3331
,0,872	-3332
,112,0	-3333
,11:33	-3334
,159,0	-3335
,19:46	-3336
,20:46	-3337
,23:34	-3338
,23:48	-3339
,25:42	-3340
,25:53	-3341
,27:28	-3342
0,0,10	-3343
1,57,0	-3344
10,0,5	-3345
2,72,0	-3346
2,75,0	-3347
2,78,0	-3348
21,0,4	-3349
24,0,6	-3350
25,0,6	-3351
26,0,4	-3352
29,0,5	-3353
29,0,6	-3354
30,0,4	-3355
30,0,5	-3356
31,0,5	-3357
32,0,6	-3358
3:0,63	-3359
40:0,4	-3360
42,0,1	-3361
44,0,5	-3362
49,0,4	-3363
49,0,6	-3364
5,0,10	-3365
51,0,4	-3366
55,0,5	-3367
55,0,6	-3368
56,0,4	-3369
5:0,95	-3370
62,0,5	-3371
63,0,3	-3372
65,0,4	-3373
66,0,5	-3374
67,0,6	-3375
7,1755	-3376
80,0,5	-3377
84,0,5	-3378
85,0,6	-3379
90,0,5	-3380
0,108,0	-3381
0,132,0	-3382
0:99:28	-3383
0:99:29	-3384
0:99:30	-3385
0:99:63	-3386
1,114,0	-3387
1:99:25	-3388
1:99:55	-3389
3,102,0	-3390
5,111,0	-3391
55:0,55	-3392
6,102,0	-3393
6,120,0	-3394
7,111,0	-3395
7,114,0	-3396
88:0,88	-3397
:99:103	-3398
:99:657	-3399
▁0/1:33	-3400
0:0,80,1	-3401
43:0,43,	-3402
7:99:115	-3403
7:99:124	-3404
8:0,38,5	-3405
:16,0:16	-3406
:16:99:2	-3407
:36:99:2	-3408
:39:99:5	-3409
:42:99:3	-3410
:42:99:5	-3411
:55:0,55	-3412
:56:0,56	-3413
:95:0,95	-3414
:99:1157	-3415
0:0,60,84	-3416
3:0,83,10	-3417
3:0,83,12	-3418
78:0,78,9	-3419
9:0,89,12	-3420
:29:99:49	-3421
:30:99:40	-3422
:31:99:36	-3423
:53:0,53,	-3424
:99:0,102	-3425
:99:0,103	-3426
▁0/1:10,4	-3427
▁0/1:6,12	-3428
▁0/1:7,17	-3429
,15:40:99:	-3430
0:0,60,639	-3431
0:0,60,672	-3432
0:0,60,673	-3433
0:0,60,689	-3434
0:0,60,707	-3435
0:0,60,715	-3436
0:0,60,719	-3437
0:0,60,749	-3438
0:0,60,875	-3439
0:30:0,30,	-3440
:22:0,22,4	-3441
:26:0,26,4	-3442
:29:0,29,5	-3443
:40:0,40,5	-3444
:40:0,40,6	-3445
:44:0,44,5	-3446
:69:0,69,7	-3447
:99:270,0,	-3448
:99:600,0,	-3449
:99:780,0,	-3450
▁0/1:22,26	-3451
▁0/1:23,26	-3452
,19:40:99:5	-3453
72:0,72,996	-3454
:63:0,63,69	-3455
:69:0,69,78	-3456
:79:0,79,12	-3457
:84:0,84,10	-3458
:96:0,96,12	-3459
▁0/1:8,20:2	-3460
,11:29:99:29	-3461
,12:29:99:32	-3462
,12:30:99:30	-3463
,15:30:99:42	-3464
74:0,74,1053	-3465
81:0,81,1080	-3466
:60:0,60,685	-3467
:60:0,60,722	-3468
:60:0,60,929	-3469
:61:0,61,808	-3470
:61:0,61,814	-3471
:61:0,61,821	-3472
:61:0,61,829	-3473
:61:0,61,833	-3474
:61:0,61,835	-3475
:61:0,61,883	-3476
:61:0,61,898	-3477
:61:0,61,917	-3478
:62:0,62,770	-3479
:62:0,62,799	-3480
:62:0,62,805	-3481
:62:0,62,817	-3482
:62:0,62,857	-3483
:62:0,62,876	-3484
:62:0,62,906	-3485
:62:0,62,923	-3486
:62:0,62,941	-3487
:63:0,63,693	-3488
:63:0,63,726	-3489
:63:0,63,743	-3490
:63:0,63,744	-3491
:63:0,63,756	-3492
:63:0,63,758	-3493
:63:0,63,773	-3494
:63:0,63,782	-3495
:63:0,63,810	-3496
:63:0,63,812	-3497
:63:0,63,818	-3498
:63:0,63,821	-3499
:63:0,63,824	-3500
:63:0,63,859	-3501
:63:0,63,872	-3502
:63:0,63,878	-3503
:63:0,63,900	-3504
:63:0,63,919	-3505
:63:0,63,930	-3506
:63:0,63,940	-3507
:63:0,63,990	-3508
:64:0,64,902	-3509
:65:0,65,844	-3510
:65:0,65,865	-3511
:66:0,66,770	-3512
:66:0,66,779	-3513
:66:0,66,823	-3514
:66:0,66,855	-3515
:66:0,66,861	-3516
:66:0,66,863	-3517
:66:0,66,869	-3518
:66:0,66,881	-3519
:66:0,66,900	-3520
:66:0,66,912	-3521
:66:0,66,919	-3522
:66:0,66,948	-3523
:66:0,66,961	-3524
:66:0,66,962	-3525
:66:0,66,964	-3526
:68:0,68,857	-3527
:69:0,69,915	-3528
:69:0,69,938	-3529
:69:0,69,968	-3530
:70:0,70,981	-3531
:72:0,72,907	-3532
▁0/1:10,21:3	-3533
▁0/1:27,20:4	-3534
▁1/1:0,47:47	-3535
▁1/1:1,27:28	-3536
▁1/1:1,31:32	-3537
3:33:0,33,495	-3538
:67:0,67,1020	-3539
:67:0,67,1342	-3540
:68:0,68,1029	-3541
:72:0,72,1053	-3542
:73:0,73,1279	-3543
▁0/1:10,22:32	-3544
▁0/1:11,23:34	-3545
▁0/1:14,19:33	-3546
▁0/1:16,17:33	-3547
▁0/1:17,25:42	-3548
▁0/1:19,18:37	-3549
▁0/1:22,11:33	-3550
▁0/1:22,16:38	-3551
▁0/1:22,25:47	-3552
▁0/1:25,23:48	-3553
▁0/1:26,20:46	-3554
▁0/1:27,19:46	-3555
▁0/1:28,25:53	-3556
:99:0,117,1755	-3557
▁0/0:21,0:21:3	-3558
▁1/1:0,19:19:56	-3559
▁1/1:0,33:33:97	-3560
▁0/1:9,7:16:99:1	-3561
▁1/1:0,20:20:59:	-3562
▁1/1:0,25:25:75:	-3563
▁1/1:0,28:28:84:	-3564
178	-3565
179	-3566
300	-3567
303	-3568
343	-3569
368	-3570
369	-3571
383	-3572
399	-3573
401	-3574
406	-3575
423	-3576
437	-3577
453	-3578
460	-3579
547	-3580
597	-3581
652	-3582
701	-3583
708	-3584
723	-3585
883	-3586
91:	-3587
959	-3588
968	-3589
9:5	-3590
:59	-3591
:80	-3592
,496	-3593
,541	-3594
,672	-3595
,759	-3596
,903	-3597
1299	-3598
1364	-3599
26,0	-3600
35,0	-3601
39,0	-3602
47,0	-3603
:626	-3604
:677	-3605
:794	-3606
:815	-3607
:854	-3608
:856	-3609
:858	-3610
:865	-3611
:874	-3612
:896	-3613
:897	-3614
:899	-3615
:926	-3616
:929	-3617
:972	-3618
:978	-3619
:985	-3620
:996	-3621
,0,17	-3622
,0:47	-3623
,0:48	-3624
,1115	-3625
,1127	-3626
,1131	-3627
,1152	-3628
,1189	-3629
,1234	-3630
,1323	-3631
,22:3	-3632
,29:3	-3633
,97,0	-3634
,9:15	-3635
0,108	-3636
0:104	-3637
23:33	-3638
32:33	-3639
52:0,	-3640
58:0,	-3641
83:0,	-3642
:1008	-3643
:1012	-3644
:1014	-3645
:1039	-3646
:1055	-3647
:1077	-3648
:1094	-3649
:1109	-3650
:852,	-3651
:853,	-3652
:873,	-3653
:973,	-3654
,0,176	-3655
,0,185	-3656
,0,195	-3657
,0,198	-3658
,0,204	-3659
,0,206	-3660
,0,211	-3661
,0,224	-3662
,0,232	-3663
,0,258	-3664
,0,264	-3665
,0,270	-3666
,0,291	-3667
,0,296	-3668
,0,703	-3669
,0,708	-3670
,0,711	-3671
,0,718	-3672
,0,728	-3673
,0,742	-3674
,0,748	-3675
,0,764	-3676
,0,787	-3677
,0,829	-3678
,0,841	-3679
,100,0	-3680
,10:32	-3681
,118,0	-3682
,11:35	-3683
,162,0	-3684
,168,0	-3685
,19:27	-3686
,22:48	-3687
,24:35	-3688
,24:38	-3689
,24:53	-3690
,26:27	-3691
,26:43	-3692
,28:44	-3693
,29:48	-3694
0,0,11	-3695
05,0,6	-3696
06,0,4	-3697
06,0,6	-3698
1,54,0	-3699
11,0,2	-3700
13,0,6	-3701
20,0,4	-3702
39,0,5	-3703
39,0,6	-3704
40,0,1	-3705
42,0,6	-3706
44,0,6	-3707
45,0,6	-3708
47,0,6	-3709
4:99:3	-3710
5,66,0	-3711
5,99,0	-3712
52,0,5	-3713
53,0,3	-3714
55,0,3	-3715
5:0,35	-3716
66,0,4	-3717
68,0,6	-3718
7,0,14	-3719
7,0:47	-3720
71,0,6	-3721
73,0,6	-3722
97,0,5	-3723
:87:12	-3724
0,0,525	-3725
03,0,12	-3726
0:99:25	-3727
0:99:45	-3728
1:99:32	-3729
1:99:40	-3730
1:99:42	-3731
1:99:62	-3732
1:99:66	-3733
2,111,0	-3734
20,84,0	-3735
25:0,25	-3736
3,108,0	-3737
4,105,0	-3738
47:0,47	-3739
48,0:48	-3740
5,108,0	-3741
58:0,58	-3742
8,111,0	-3743
83:0,83	-3744
9,111,0	-3745
9:99:46	-3746
9:99:65	-3747
:0,27,6	-3748
:99:129	-3749
:99:173	-3750
:99:362	-3751
:99:585	-3752
:99:607	-3753
:99:609	-3754
:99:646	-3755
:99:744	-3756
▁0/1:35	-3757
0:0,30,5	-3758
0:51:99:	-3759
4:0,34,6	-3760
7:0,37,5	-3761
7:99:114	-3762
7:99:129	-3763
7:99:130	-3764
8:0,38,6	-3765
:0:0,0,1	-3766
:18:99:2	-3767
:26:99:1	-3768
:27:99:1	-3769
:29:99:6	-3770
:31:99:3	-3771
:39:99:6	-3772
:41:99:4	-3773
:43:99:5	-3774
:46:99:4	-3775
:99:1145	-3776
▁0/1:8,7	-3777
▁0/1:8,8	-3778
▁0/1:9,6	-3779
2:0,62,10	-3780
2:0,82,12	-3781
3:0,63,10	-3782
3:0,63,73	-3783
3:0,83,11	-3784
4:34:0,34	-3785
5:0,65,10	-3786
70:0,70,9	-3787
75:0,75,8	-3788
:36:0,36,	-3789
:47:99:15	-3790
▁0/1:11,5	-3791
▁0/1:11,6	-3792
▁0/1:18,7	-3793
▁0/1:18,8	-3794
▁0/1:19,7	-3795
▁0/1:30,2	-3796
▁0/1:7,18	-3797
,13:39:99:	-3798
0:0,60,624	-3799
0:0,60,633	-3800
0:0,60,644	-3801
0:0,60,645	-3802
0:0,60,648	-3803
0:0,60,650	-3804
0:0,60,655	-3805
0:0,60,664	-3806
0:0,60,705	-3807
0:0,60,729	-3808
0:0,60,739	-3809
0:0,60,747	-3810
0:0,60,760	-3811
0:0,60,799	-3812
0:0,60,801	-3813
0:0,60,838	-3814
0:0,60,864	-3815
0:40:99:56	-3816
3:23:0,23,	-3817
:28:0,28,4	-3818
:28:0,28,5	-3819
:37:0,37,5	-3820
:99:560,0,	-3821
▁0/1:14,25	-3822
▁0/1:19,28	-3823
▁0/1:20,27	-3824
▁0/1:25,12	-3825
,12:31:99:3	-3826
,14:31:99:3	-3827
5:35:0,35,5	-3828
7:0,67,1031	-3829
84:0,84,950	-3830
8:38:99:126	-3831
:36:0,36,45	-3832
:42:0,42,56	-3833
:99:276,0,3	-3834
:99:376,0,5	-3835
:99:399,0,5	-3836
:99:458,0,4	-3837
▁0/1:5,10:1	-3838
▁0/1:6,9:15	-3839
▁1/1:1,29:3	-3840
,11:29:99:30	-3841
,12:30:99:32	-3842
,12:31:99:32	-3843
,13:29:99:30	-3844
78:0,78,1135	-3845
:60:0,60,637	-3846
:60:0,60,686	-3847
:60:0,60,701	-3848
:60:0,60,712	-3849
:60:0,60,714	-3850
:61:0,61,740	-3851
:61:0,61,748	-3852
:61:0,61,757	-3853
:61:0,61,769	-3854
:61:0,61,782	-3855
:61:0,61,785	-3856
:61:0,61,786	-3857
:61:0,61,787	-3858
:61:0,61,803	-3859
:61:0,61,813	-3860
:61:0,61,841	-3861
:61:0,61,858	-3862
:61:0,61,866	-3863
:61:0,61,878	-3864
:61:0,61,899	-3865
:61:0,61,915	-3866
:62:0,62,789	-3867
:62:0,62,794	-3868
:62:0,62,822	-3869
:62:0,62,850	-3870
:62:0,62,881	-3871
:62:0,62,908	-3872
:62:0,62,938	-3873
:62:0,62,953	-3874
:62:0,62,996	-3875
:63:0,63,719	-3876
:63:0,63,728	-3877
:63:0,63,731	-3878
:63:0,63,732	-3879
:63:0,63,745	-3880
:63:0,63,747	-3881
:63:0,63,767	-3882
:63:0,63,777	-3883
:63:0,63,800	-3884
:63:0,63,809	-3885
:63:0,63,815	-3886
:63:0,63,826	-3887
:63:0,63,894	-3888
:63:0,63,912	-3889
:63:0,63,917	-3890
:63:0,63,929	-3891
:64:0,64,911	-3892
:64:0,64,916	-3893
:64:0,64,930	-3894
:65:0,65,799	-3895
:65:0,65,802	-3896
:65:0,65,933	-3897
:65:0,65,967	-3898
:65:0,65,974	-3899
:66:0,66,726	-3900
:66:0,66,761	-3901
:66:0,66,787	-3902
:66:0,66,809	-3903
:66:0,66,836	-3904
:66:0,66,845	-3905
:66:0,66,857	-3906
:66:0,66,871	-3907
:66:0,66,886	-3908
:66:0,66,922	-3909
:66:0,66,932	-3910
:66:0,66,934	-3911
:66:0,66,956	-3912
:66:0,66,971	-3913
:68:0,68,923	-3914
:69:0,69,951	-3915
:72:0,72,911	-3916
▁0/0:39,0:39	-3917
▁0/0:47,0:47	-3918
▁0/0:48,0:48	-3919
▁0/1:24,10:3	-3920
▁0/1:8,19:27	-3921
▁1/1:0,48:48	-3922
▁1/1:1,26:27	-3923
▁1/1:1,32:33	-3924
:69:0,69,1080	-3925
▁0/1:10,23:33	-3926
▁0/1:11,24:35	-3927
▁0/1:14,24:38	-3928
▁0/1:16,28:44	-3929
▁0/1:17,26:43	-3930
▁0/1:19,29:48	-3931
▁0/1:20,18:38	-3932
▁0/1:22,10:32	-3933
▁0/1:22,26:48	-3934
▁0/1:24,11:35	-3935
▁0/1:24,19:43	-3936
▁0/1:26,18:44	-3937
▁0/1:26,22:48	-3938
▁0/1:29,24:53	-3939
▁0/0:20,0:20:2	-3940
▁0/0:38,0:38:8	-3941
▁1/1:0,30:30:96	-3942
▁1/1:0,29:29:99:	-3943
▁1/1:0,31:31:91:	-3944
106	-3945
119	-3946
124	-3947
1:4	-3948
234	-3949
250	-3950
255	-3951
283	-3952
325	-3953
328	-3954
344	-3955
347	-3956
355	-3957
364	-3958
366	-3959
389	-3960
407	-3961
420	-3962
421	-3963
455	-3964
465	-3965
472	-3966
478	-3967
486	-3968
488	-3969
491	-3970
496	-3971
498	-3972
541	-3973
552	-3974
653	-3975
704	-3976
717	-3977
729	-3978
766	-3979
772	-3980
837	-3981
919	-3982
927	-3983
953	-3984
955	-3985
962	-3986
993	-3987
:61	-3988
,422	-3989
,469	-3990
,510	-3991
0,15	-3992
1,14	-3993
1418	-3994
4,15	-3995
42,0	-3996
50,6	-3997
58:5	-3998
7:38	-3999
90:1	-4000
:20:	-4001
:41:	-4002
:715	-4003
:769	-4004
:79:	-4005
:809	-4006
:829	-4007
:848	-4008
:849	-4009
:878	-4010
:888	-4011
:894	-4012
:898	-4013
:959	-4014
:962	-4015
:975	-4016
:981	-4017
:984	-4018
:988	-4019
:992	-4020
▁011	-4021
,0,93	-4022
,1113	-4023
,1123	-4024
,1155	-4025
,1186	-4026
,1190	-4027
,22:5	-4028
,26:3	-4029
,94,0	-4030
,9:14	-4031
0,105	-4032
0,106	-4033
0:105	-4034
0:31:	-4035
13:13	-4036
1:0,7	-4037
55:55	-4038
8,0,8	-4039
:0,35	-4040
:0,98	-4041
:1001	-4042
:1009	-4043
:1024	-4044
:1071	-4045
:1081	-4046
:1085	-4047
:1088	-4048
:1101	-4049
:851,	-4050
:950,	-4051
,0,116	-4052
,0,148	-4053
,0,171	-4054
,0,189	-4055
,0,191	-4056
,0,194	-4057
,0,207	-4058
,0,208	-4059
,0,221	-4060
,0,223	-4061
,0,229	-4062
,0,260	-4063
,0,266	-4064
,0,641	-4065
,0,691	-4066
,0,700	-4067
,0,726	-4068
,0,729	-4069
,0,738	-4070
,0,814	-4071
,0,824	-4072
,0,891	-4073
,0,905	-4074
,0,923	-4075
,10:33	-4076
,174,0	-4077
,17:45	-4078
,18:47	-4079
,21:48	-4080
,22:46	-4081
,26:54	-4082
,27:44	-4083
,27:45	-4084
,30:48	-4085
0,0,29	-4086
0,54,0	-4087
0,86,0	-4088
00,0,4	-4089
03,0,6	-4090
08,0,6	-4091
09,0,6	-4092
1,0,69	-4093
1,60,0	-4094
1,66,0	-4095
10,0,4	-4096
1:0,91	-4097
2,45,0	-4098
2,57,0	-4099
20,0,5	-4100
24,0,4	-4101
31,0,4	-4102
31,0,6	-4103
33,0,6	-4104
36,0,6	-4105
4,0,10	-4106
4,66,0	-4107
40,0,3	-4108
410,0,	-4109
5,69,0	-4110
53,0,4	-4111
56,0,6	-4112
57,0,5	-4113
6,90,0	-4114
64,0,5	-4115
64,0,6	-4116
65,0,5	-4117
69,0,6	-4118
7,66,0	-4119
76,0,6	-4120
7:0,97	-4121
8,0,11	-4122
8,66,0	-4123
86,0,4	-4124
86,0,6	-4125
89,0,6	-4126
9,0,10	-4127
96,0,6	-4128
:0,26,	-4129
:99:88	-4130
,0,1044	-4131
,0,1350	-4132
0,104,0	-4133
0,126,0	-4134
0,135,0	-4135
0,138,0	-4136
0:99:42	-4137
1,126,0	-4138
1:99:63	-4139
2:0,62,	-4140
34:0,34	-4141
36:0,36	-4142
37:0,37	-4143
4,123,0	-4144
495,0,3	-4145
5,105,0	-4146
6,108,0	-4147
8,120,0	-4148
9,107,0	-4149
9:99:54	-4150
9:99:56	-4151
:0,32,6	-4152
:99:101	-4153
:99:327	-4154
:99:388	-4155
:99:395	-4156
:99:427	-4157
:99:457	-4158
:99:463	-4159
:99:498	-4160
:99:552	-4161
:99:578	-4162
:99:608	-4163
:99:616	-4164
:99:643	-4165
:99:651	-4166
:99:681	-4167
:99:697	-4168
:99:777	-4169
:99:815	-4170
18,105,0	-4171
2:0,62,6	-4172
7:99:118	-4173
7:99:120	-4174
7:99:127	-4175
906,81,0	-4176
9:59:99:	-4177
:14:99:2	-4178
:23:99:5	-4179
:30:99:4	-4180
:40:99:4	-4181
:44:99:3	-4182
:49:99:6	-4183
:97:0,97	-4184
:99:1132	-4185
:99:1172	-4186
:99:1227	-4187
▁0/1:33,	-4188
▁0/1:7,7	-4189
▁0/1:7,8	-4190
▁1/1:1,4	-4191
27:0,27,2	-4192
27:40:99:	-4193
44:0,44,6	-4194
9:0,89,13	-4195
:30:99:38	-4196
:31:99:35	-4197
:31:99:49	-4198
:41:99:70	-4199
:855,75,0	-4200
:893,78,0	-4201
▁0/1:10,6	-4202
▁0/1:12,6	-4203
▁0/1:17,7	-4204
▁0/1:6,13	-4205
▁0/1:6,14	-4206
▁0/1:7,14	-4207
0:0,30,450	-4208
0:0,60,609	-4209
0:0,60,612	-4210
0:0,60,618	-4211
0:0,60,629	-4212
0:0,60,638	-4213
0:0,60,657	-4214
0:0,60,667	-4215
0:0,60,668	-4216
0:0,60,714	-4217
0:0,60,742	-4218
0:0,60,754	-4219
0:0,60,755	-4220
0:0,60,779	-4221
0:0,60,798	-4222
0:0,60,818	-4223
0:0,60,836	-4224
0:0,60,837	-4225
1326,117,0	-4226
77:0,77,10	-4227
:24:0,24,2	-4228
:24:0,24,5	-4229
:26:0,26,5	-4230
:33:0,33,3	-4231
:33:0,33,5	-4232
:43:0,43,6	-4233
:54:0,54,6	-4234
:99:280,0,	-4235
:99:310,0,	-4236
▁0/1:24,25	-4237
▁0/1:25,13	-4238
▁0/1:25,24	-4239
▁0/1:26,12	-4240
▁0/1:26,25	-4241
▁0/1:27,15	-4242
▁0/1:27,17	-4243
▁0/1:27,22	-4244
,10:33:99:2	-4245
,15:31:99:5	-4246
24:0,24,360	-4247
7:0,87,1257	-4248
8:0,68,1039	-4249
8:38:99:124	-4250
:62:0,62,74	-4251
:64:0,64,73	-4252
:65:0,65,76	-4253
:90:0,90,12	-4254
:90:0,90,13	-4255
:99:268,0,3	-4256
:99:311,0,3	-4257
:99:643,0,3	-4258
▁0/1:22,9:3	-4259
▁0/1:28,21:	-4260
▁0/1:5,9:14	-4261
▁1/1:0,60:6	-4262
,15:30:99:38	-4263
72:0,72,1072	-4264
80:0,80,1093	-4265
8:38:99:1304	-4266
:60:0,60,670	-4267
:60:0,60,681	-4268
:60:0,60,691	-4269
:60:0,60,694	-4270
:60:0,60,696	-4271
:60:0,60,719	-4272
:60:0,60,748	-4273
:60:0,60,904	-4274
:60:0,60,952	-4275
:60:0,60,978	-4276
:61:0,61,726	-4277
:61:0,61,744	-4278
:61:0,61,752	-4279
:61:0,61,768	-4280
:61:0,61,777	-4281
:61:0,61,793	-4282
:61:0,61,801	-4283
:61:0,61,815	-4284
:61:0,61,824	-4285
:61:0,61,850	-4286
:61:0,61,851	-4287
:61:0,61,853	-4288
:61:0,61,864	-4289
:61:0,61,870	-4290
:61:0,61,880	-4291
:61:0,61,913	-4292
:61:0,61,928	-4293
:61:0,61,937	-4294
:62:0,62,705	-4295
:62:0,62,766	-4296
:62:0,62,774	-4297
:62:0,62,791	-4298
:62:0,62,797	-4299
:62:0,62,826	-4300
:62:0,62,839	-4301
:62:0,62,847	-4302
:62:0,62,862	-4303
:62:0,62,873	-4304
:62:0,62,898	-4305
:62:0,62,904	-4306
:62:0,62,905	-4307
:62:0,62,920	-4308
:62:0,62,932	-4309
:62:0,62,990	-4310
:63:0,63,701	-4311
:63:0,63,704	-4312
:63:0,63,736	-4313
:63:0,63,742	-4314
:63:0,63,746	-4315
:63:0,63,751	-4316
:63:0,63,785	-4317
:63:0,63,793	-4318
:63:0,63,798	-4319
:63:0,63,806	-4320
:63:0,63,827	-4321
:63:0,63,832	-4322
:63:0,63,844	-4323
:63:0,63,852	-4324
:63:0,63,928	-4325
:63:0,63,938	-4326
:63:0,63,943	-4327
:63:0,63,944	-4328
:63:0,63,982	-4329
:64:0,64,791	-4330
:64:0,64,867	-4331
:64:0,64,887	-4332
:64:0,64,893	-4333
:64:0,64,897	-4334
:64:0,64,959	-4335
:65:0,65,806	-4336
:65:0,65,824	-4337
:65:0,65,829	-4338
:65:0,65,852	-4339
:65:0,65,897	-4340
:65:0,65,909	-4341
:65:0,65,926	-4342
:65:0,65,993	-4343
:66:0,66,765	-4344
:66:0,66,769	-4345
:66:0,66,790	-4346
:66:0,66,824	-4347
:66:0,66,832	-4348
:66:0,66,837	-4349
:66:0,66,844	-4350
:66:0,66,849	-4351
:66:0,66,878	-4352
:66:0,66,887	-4353
:66:0,66,896	-4354
:66:0,66,901	-4355
:66:0,66,903	-4356
:66:0,66,921	-4357
:66:0,66,924	-4358
:66:0,66,926	-4359
:66:0,66,943	-4360
:66:0,66,944	-4361
:66:0,66,945	-4362
:66:0,66,953	-4363
:66:0,66,972	-4364
:67:0,67,889	-4365
:67:0,67,949	-4366
:68:0,68,831	-4367
:69:0,69,752	-4368
:69:0,69,848	-4369
:69:0,69,853	-4370
:69:0,69,952	-4371
:70:0,70,928	-4372
:72:0,72,970	-4373
:74:0,74,892	-4374
:84:0,84,119	-4375
▁0/1:13,26:3	-4376
▁1/1:0,13:13	-4377
▁1/1:0,55:55	-4378
:27:99:340,0,	-4379
:62:0,62,1012	-4380
:66:0,66,1035	-4381
:68:0,68,1004	-4382
:72:0,72,1010	-4383
:75:0,75,1058	-4384
:79:0,79,1036	-4385
:96:0,96,1440	-4386
:99:0,99,1485	-4387
:99:1146,99,0	-4388
▁0/1:15,20:35	-4389
▁0/1:17,27:44	-4390
▁0/1:18,27:45	-4391
▁0/1:18,30:48	-4392
▁0/1:19,28:47	-4393
▁0/1:20,27:47	-4394
▁0/1:21,14:35	-4395
▁0/1:24,22:46	-4396
▁0/1:25,12:37	-4397
▁0/1:27,21:48	-4398
▁0/1:28,17:45	-4399
▁0/1:28,26:54	-4400
▁0/1:29,18:47	-4401
▁1/1:1,30:31:	-4402
:25:99:346,0,3	-4403
:99:1202,105,0	-4404
▁0/0:28,0:28:8	-4405
7:99:1270,111,0	-4406
▁1/1:0,18:18:53	-4407
▁1/1:0,23:23:72	-4408
▁0/1:6,13:19:99:	-4409
▁0/1:7,14:21:99:	-4410
140	-4411
222	-4412
225	-4413
251	-4414
256	-4415
265	-4416
268	-4417
301	-4418
302	-4419
306	-4420
342	-4421
365	-4422
373	-4423
381	-4424
408	-4425
424	-4426
449	-4427
451	-4428
461	-4429
463	-4430
469	-4431
493	-4432
497	-4433
499	-4434
531	-4435
544	-4436
546	-4437
559	-4438
567	-4439
591	-4440
666	-4441
698	-4442
710	-4443
721	-4444
722	-4445
727	-4446
728	-4447
759	-4448
764	-4449
774	-4450
775	-4451
786	-4452
804	-4453
832	-4454
847	-4455
852	-4456
854	-4457
865	-4458
894	-4459
89:	-4460
935	-4461
948	-4462
956	-4463
964	-4464
969	-4465
972	-4466
998	-4467
:92	-4468
,430	-4469
,485	-4470
,548	-4471
,704	-4472
,708	-4473
,789	-4474
,905	-4475
,908	-4476
0,16	-4477
0,19	-4478
1192	-4479
1242	-4480
1315	-4481
1391	-4482
1447	-4483
1:42	-4484
22,0	-4485
44,0	-4486
79,0	-4487
8:48	-4488
:684	-4489
:744	-4490
:806	-4491
:808	-4492
:824	-4493
:827	-4494
:828	-4495
:834	-4496
:844	-4497
:867	-4498
:868	-4499
:872	-4500
:876	-4501
:877	-4502
:887	-4503
:889	-4504
:892	-4505
:89:	-4506
:918	-4507
:928	-4508
:941	-4509
:942	-4510
:945	-4511
:947	-4512
:948	-4513
:961	-4514
:967	-4515
:969	-4516
:976	-4517
:989	-4518
:994	-4519
:995	-4520
,0,96	-4521
,1100	-4522
,1124	-4523
,1130	-4524
,1143	-4525
,1158	-4526
,1177	-4527
,1294	-4528
,1507	-4529
,1575	-4530
,1620	-4531
,19:5	-4532
,28:2	-4533
,29:5	-4534
,5:13	-4535
,7:13	-4536
,82,0	-4537
0:102	-4538
12:12	-4539
5,0,8	-4540
53:0,	-4541
7,0,9	-4542
8,0,9	-4543
:1004	-4544
:1007	-4545
:1015	-4546
:1026	-4547
:1035	-4548
:1041	-4549
:1052	-4550
:1056	-4551
:1076	-4552
:1091	-4553
:1112	-4554
:1125	-4555
:1144	-4556
:870,	-4557
:9,0:	-4558
,0,139	-4559
,0,153	-4560
,0,173	-4561
,0,182	-4562
,0,184	-4563
,0,188	-4564
,0,200	-4565
,0,202	-4566
,0,205	-4567
,0,209	-4568
,0,213	-4569
,0,215	-4570
,0,217	-4571
,0,231	-4572
,0,235	-4573
,0,241	-4574
,0,247	-4575
,0,251	-4576
,0,277	-4577
,0,632	-4578
,0,692	-4579
,0,704	-4580
,0,733	-4581
,0,739	-4582
,0,741	-4583
,0,747	-4584
,0,749	-4585
,0,768	-4586
,0,770	-4587
,0,771	-4588
,0,776	-4589
,0,803	-4590
,0,809	-4591
,0,821	-4592
,0,836	-4593
,0,838	-4594
,0,840	-4595
,0,842	-4596
,0,859	-4597
,0,860	-4598
,0,864	-4599
,0,873	-4600
,0,894	-4601
,0,920	-4602
,0,987	-4603
,10:16	-4604
,11:17	-4605
,121,0	-4606
,146,0	-4607
,23:57	-4608
,25:26	-4609
,27:46	-4610
,27:48	-4611
,27:52	-4612
,28:46	-4613
,29:47	-4614
0,72,0	-4615
0,95,0	-4616
00,0,2	-4617
00,0,3	-4618
00,0,5	-4619
0:1041	-4620
0:99:1	-4621
1,51,0	-4622
1,71,0	-4623
11,0,6	-4624
12,0,6	-4625
14,0,6	-4626
16,0,6	-4627
2,0,12	-4628
2,51,0	-4629
2,60,0	-4630
21,0,6	-4631
22,0,6	-4632
3,51,0	-4633
3,98,0	-4634
40,0,5	-4635
41,0,5	-4636
430,0,	-4637
45,0,8	-4638
47,0,5	-4639
5,0,11	-4640
53,0,5	-4641
570,0,	-4642
6,68,0	-4643
60,0,1	-4644
70,0,3	-4645
70,0,4	-4646
70,0,6	-4647
80,0,3	-4648
82,0,5	-4649
82,0,6	-4650
87,0,6	-4651
9,0,11	-4652
90,0,3	-4653
94,0,6	-4654
95,0,6	-4655
98,0,5	-4656
:7,0:7	-4657
:99:81	-4658
:99:90	-4659
:99:95	-4660
,0,1104	-4661
,0,1238	-4662
,0,1314	-4663
,0,1356	-4664
0,0,299	-4665
0,101,0	-4666
0,122,0	-4667
0,144,0	-4668
0:99:62	-4669
0:99:65	-4670
12,0,10	-4671
14,90,0	-4672
16,81,0	-4673
188,0,3	-4674
1:0,71,	-4675
1:99:26	-4676
2,101,0	-4677
25,99,0	-4678
32,96,0	-4679
36,99,0	-4680
36:99:2	-4681
37,0,10	-4682
38:0,38	-4683
39,81,0	-4684
4,108,0	-4685
40:99:8	-4686
46,93,0	-4687
58,93,0	-4688
6,104,0	-4689
6,105,0	-4690
6,110,0	-4691
7,110,0	-4692
9,113,0	-4693
9:99:44	-4694
9:99:66	-4695
:0,24,5	-4696
:0,28,6	-4697
:11:99:	-4698
:99:107	-4699
:99:108	-4700
:99:147	-4701
:99:277	-4702
:99:298	-4703
:99:378	-4704
:99:407	-4705
:99:417	-4706
:99:433	-4707
:99:525	-4708
:99:538	-4709
:99:613	-4710
:99:615	-4711
:99:655	-4712
:99:689	-4713
:99:761	-4714
:99:878	-4715
0:0,80,9	-4716
13,114,0	-4717
14,123,0	-4718
1:0,41,6	-4719
50:0,50,	-4720
7:99:111	-4721
7:99:116	-4722
7:99:119	-4723
7:99:132	-4724
919,81,0	-4725
:15:99:2	-4726
:38:99:2	-4727
:9,0:9:2	-4728
:99:1034	-4729
:99:1049	-4730
:99:1175	-4731
:99:1176	-4732
:99:1206	-4733
:99:1217	-4734
:99:1242	-4735
:99:1277	-4736
:99:1284	-4737
:99:1465	-4738
:99:1477	-4739
,6:21:99:	-4740
0,99,1485	-4741
33:0,33,6	-4742
45:0,45,6	-4743
55:0,55,9	-4744
71:0,71,8	-4745
81:0,81,9	-4746
9:0,39,54	-4747
9:39:99:4	-4748
:29:99:54	-4749
:40:99:49	-4750
:40:99:66	-4751
:40:99:74	-4752
:41:99:44	-4753
:41:99:74	-4754
:50:0,50,	-4755
:52:0,52,	-4756
:759,66,0	-4757
:793,72,0	-4758
:821,78,0	-4759
:869,75,0	-4760
:875,75,0	-4761
:884,75,0	-4762
:885,78,0	-4763
:894,78,0	-4764
:896,78,0	-4765
▁0/1:17,6	-4766
,28:49:99:	-4767
0:0,60,628	-4768
0:0,60,634	-4769
0:0,60,635	-4770
0:0,60,636	-4771
0:0,60,643	-4772
0:0,60,647	-4773
0:0,60,653	-4774
0:0,60,654	-4775
0:0,60,728	-4776
0:0,60,733	-4777
0:0,60,740	-4778
0:0,60,741	-4779
0:0,60,743	-4780
0:0,60,745	-4781
0:0,60,750	-4782
0:0,60,753	-4783
0:0,60,757	-4784
0:0,60,764	-4785
0:0,60,769	-4786
0:0,60,774	-4787
0:0,60,883	-4788
3:0,63,648	-4789
3:0,63,726	-4790
4:0,64,976	-4791
4:0,64,991	-4792
5:0,65,989	-4793
6:0,36,540	-4794
70:0,70,99	-4795
9:0,69,975	-4796
9:39:99:55	-4797
:1013,87,0	-4798
:1094,93,0	-4799
:1109,96,0	-4800
:1112,96,0	-4801
:1144,96,0	-4802
:99:300,0,	-4803
:99:550,0,	-4804
:99:580,0,	-4805
:99:690,0,	-4806
▁0/1:14,27	-4807
▁0/1:23,9:	-4808
▁0/1:24,12	-4809
▁0/1:24,27	-4810
▁0/1:26,16	-4811
▁0/1:28,14	-4812
▁0/1:29,17	-4813
▁1/1:0,11:	-4814
0:0,80,1134	-4815
0:1020,90,0	-4816
0:1030,90,0	-4817
0:1041,90,0	-4818
1:0,61,1061	-4819
3:0,83,1101	-4820
4:0,64,1000	-4821
5:0,85,1305	-4822
6:0,66,1092	-4823
70:0,70,908	-4824
73:0,73,990	-4825
73:0,73,993	-4826
74:0,74,986	-4827
75:0,75,971	-4828
7:0,67,1080	-4829
8:38:99:114	-4830
8:38:99:120	-4831
9:0,69,1062	-4832
:62:0,62,75	-4833
:99:248,0,4	-4834
:99:281,0,3	-4835
:99:286,0,3	-4836
:99:316,0,3	-4837
:99:361,0,5	-4838
:99:372,0,2	-4839
:99:379,0,5	-4840
:99:396,0,5	-4841
:99:399,0,4	-4842
:99:402,0,5	-4843
:99:412,0,5	-4844
:99:427,0,5	-4845
:99:454,0,4	-4846
:99:552,0,3	-4847
:99:555,0,4	-4848
:99:557,0,4	-4849
:99:599,0,3	-4850
:99:628,0,3	-4851
:99:629,0,4	-4852
:99:636,0,3	-4853
:99:669,0,3	-4854
:99:686,0,5	-4855
▁0/1:21,9:3	-4856
▁0/1:6,7:13	-4857
▁0/1:8,5:13	-4858
▁0/1:9,20:2	-4859
▁1/1:1,28:2	-4860
,13:29:99:38	-4861
,14:31:99:40	-4862
,15:30:99:39	-4863
,15:30:99:40	-4864
,15:31:99:39	-4865
,19:40:99:53	-4866
,19:40:99:54	-4867
,19:41:99:54	-4868
70:0,70,1044	-4869
71:0,71,1080	-4870
72:0,72,1051	-4871
73:0,73,1060	-4872
74:0,74,1087	-4873
75:0,75,1013	-4874
75:0,75,1019	-4875
75:0,75,1053	-4876
88:0,88,1294	-4877
8:38:99:1257	-4878
:29:0,29,422	-4879
:29:0,29,450	-4880
:38:0,38,510	-4881
:60:0,60,635	-4882
:60:0,60,653	-4883
:60:0,60,656	-4884
:60:0,60,682	-4885
:60:0,60,920	-4886
:60:0,60,931	-4887
:60:0,60,941	-4888
:60:0,60,948	-4889
:61:0,61,705	-4890
:61:0,61,730	-4891
:61:0,61,739	-4892
:61:0,61,749	-4893
:61:0,61,750	-4894
:61:0,61,754	-4895
:61:0,61,755	-4896
:61:0,61,764	-4897
:61:0,61,773	-4898
:61:0,61,779	-4899
:61:0,61,790	-4900
:61:0,61,796	-4901
:61:0,61,799	-4902
:61:0,61,810	-4903
:61:0,61,812	-4904
:61:0,61,819	-4905
:61:0,61,828	-4906
:61:0,61,831	-4907
:61:0,61,834	-4908
:61:0,61,836	-4909
:61:0,61,837	-4910
:61:0,61,855	-4911
:61:0,61,856	-4912
:61:0,61,876	-4913
:61:0,61,890	-4914
:61:0,61,900	-4915
:61:0,61,936	-4916
:61:0,61,990	-4917
:62:0,62,761	-4918
:62:0,62,773	-4919
:62:0,62,775	-4920
:62:0,62,807	-4921
:62:0,62,821	-4922
:62:0,62,830	-4923
:62:0,62,837	-4924
:62:0,62,846	-4925
:62:0,62,858	-4926
:62:0,62,869	-4927
:62:0,62,880	-4928
:62:0,62,886	-4929
:62:0,62,887	-4930
:62:0,62,891	-4931
:62:0,62,895	-4932
:62:0,62,933	-4933
:62:0,62,994	-4934
:63:0,63,712	-4935
:63:0,63,729	-4936
:63:0,63,739	-4937
:63:0,63,754	-4938
:63:0,63,757	-4939
:63:0,63,762	-4940
:63:0,63,792	-4941
:63:0,63,908	-4942
:63:0,63,909	-4943
:63:0,63,915	-4944
:63:0,63,939	-4945
:63:0,63,946	-4946
:63:0,63,951	-4947
:64:0,64,752	-4948
:64:0,64,835	-4949
:64:0,64,848	-4950
:64:0,64,863	-4951
:64:0,64,886	-4952
:64:0,64,937	-4953
:64:0,64,948	-4954
:64:0,64,956	-4955
:64:0,64,961	-4956
:64:0,64,982	-4957
:65:0,65,783	-4958
:65:0,65,786	-4959
:65:0,65,810	-4960
:65:0,65,827	-4961
:65:0,65,845	-4962
:65:0,65,846	-4963
:65:0,65,851	-4964
:65:0,65,867	-4965
:65:0,65,889	-4966
:65:0,65,913	-4967
:65:0,65,918	-4968
:65:0,65,952	-4969
:66:0,66,756	-4970
:66:0,66,775	-4971
:66:0,66,778	-4972
:66:0,66,781	-4973
:66:0,66,789	-4974
:66:0,66,797	-4975
:66:0,66,800	-4976
:66:0,66,812	-4977
:66:0,66,820	-4978
:66:0,66,841	-4979
:66:0,66,842	-4980
:66:0,66,851	-4981
:66:0,66,854	-4982
:66:0,66,858	-4983
:66:0,66,879	-4984
:66:0,66,888	-4985
:66:0,66,893	-4986
:66:0,66,897	-4987
:66:0,66,911	-4988
:66:0,66,913	-4989
:66:0,66,917	-4990
:66:0,66,925	-4991
:66:0,66,928	-4992
:66:0,66,940	-4993
:66:0,66,955	-4994
:66:0,66,959	-4995
:66:0,66,960	-4996
:66:0,66,963	-4997
:66:0,66,975	-4998
:66:0,66,978	-4999
:67:0,67,815	-5000
:67:0,67,888	-5001
:67:0,67,973	-5002
:68:0,68,767	-5003
:68:0,68,944	-5004
:69:0,69,828	-5005
:69:0,69,831	-5006
:69:0,69,847	-5007
:69:0,69,875	-5008
:69:0,69,886	-5009
:69:0,69,923	-5010
:69:0,69,925	-5011
:69:0,69,928	-5012
:69:0,69,943	-5013
:69:0,69,958	-5014
:69:0,69,973	-5015
:69:0,69,982	-5016
:69:0,69,986	-5017
:71:0,71,972	-5018
:72:0,72,895	-5019
:72:0,72,919	-5020
:72:0,72,968	-5021
:72:0,72,980	-5022
:72:0,72,988	-5023
:99:0,101,13	-5024
▁0/1:10,6:16	-5025
▁0/1:11,5:16	-5026
▁0/1:20,21:4	-5027
▁0/1:20,8:28	-5028
▁0/1:6,10:16	-5029
▁0/1:6,11:17	-5030
▁0/1:8,20:28	-5031
▁1/1:0,12:12	-5032
▁1/1:1,25:26	-5033
▁1/1:1,41:42	-5034
:61:0,61,1016	-5035
:61:0,61,1035	-5036
:62:0,62,1002	-5037
:62:0,62,1005	-5038
:64:0,64,1035	-5039
:64:0,64,1059	-5040
:65:0,65,1006	-5041
:65:0,65,1022	-5042
:66:0,66,1054	-5043
:66:0,66,1056	-5044
:69:0,69,1012	-5045
:69:0,69,1038	-5046
:69:0,69,1147	-5047
:71:0,71,1025	-5048
:72:0,72,1022	-5049
:75:0,75,1111	-5050
:76:0,76,1146	-5051
:77:0,77,1088	-5052
:78:0,78,1158	-5053
:79:0,79,1074	-5054
:84:0,84,1080	-5055
:84:0,84,1116	-5056
:84:0,84,1248	-5057
:94:0,94,1256	-5058
▁0/1:11,16:27	-5059
▁0/1:18,14:32	-5060
▁0/1:18,28:46	-5061
▁0/1:18,29:47	-5062
▁0/1:19,27:46	-5063
▁0/1:21,27:48	-5064
▁0/1:22,14:36	-5065
▁0/1:23,20:43	-5066
▁0/1:25,27:52	-5067
▁0/1:30,18:48	-5068
▁0/1:34,23:57	-5069
:32:99:343,0,5	-5070
:99:0,103,1507	-5071
:99:1185,102,0	-5072
:99:1228,105,0	-5073
:99:1253,108,0	-5074
▁0/0:26,0:26:7	-5075
▁0/0:40,0:40:6	-5076
▁0/1:10,20:30:	-5077
▁1/1:0,13:13:3	-5078
:31:99:492,0,11	-5079
:9,0:9:20:0,20,	-5080
▁1/1:0,25:25:78	-5081
▁1/1:0,26:26:76	-5082
▁1/1:0,30:30:88	-5083
▁1/1:0,30:30:92	-5084
▁1/1:1,35:36:98	-5085
▁0/1:15,6:21:99:	-5086
▁0/1:18,23:41:99	-5087
▁0/1:6,14:20:99:	-5088
▁0/1:8,6:14:99:1	-5089
▁0/1:8,7:15:99:1	-5090
▁0/1:8,8:16:99:2	-5091
▁1/1:0,28:28:83:	-5092
▁1/1:0,29:29:87:	-5093
▁1/1:0,29:29:89:	-5094
▁1/1:0,30:30:99:	-5095
,35	-5096
,36	-5097
1,3	-5098
1,5	-5099
129	-5100
174	-5101
231	-5102
258	-5103
267	-5104
296	-5105
311	-5106
321	-5107
345	-5108
346	-5109
353	-5110
367	-5111
371	-5112
377	-5113
416	-5114
418	-5115
426	-5116
440	-5117
442	-5118
468	-5119
492	-5120
599	-5121
608	-5122
692	-5123
720	-5124
731	-5125
763	-5126
776	-5127
824	-5128
826	-5129
827	-5130
844	-5131
859	-5132
874	-5133
884	-5134
891	-5135
925	-5136
949	-5137
957	-5138
975	-5139
976	-5140
992	-5141
:50	-5142
,440	-5143
,482	-5144
,493	-5145
,550	-5146
,561	-5147
,565	-5148
,569	-5149
,595	-5150
,614	-5151
,627	-5152
,674	-5153
,702	-5154
,714	-5155
,728	-5156
,741	-5157
,754	-5158
,884	-5159
,904	-5160
,971	-5161
0,14	-5162
0:65	-5163
0:69	-5164
1,16	-5165
1002	-5166
10:1	-5167
1189	-5168
1331	-5169
1371	-5170
1401	-5171
1424	-5172
1439	-5173
1604	-5174
1835	-5175
19:6	-5176
29,0	-5177
37,0	-5178
4,12	-5179
4:17	-5180
51,8	-5181
52,6	-5182
7,13	-5183
9:52	-5184
:102	-5185
:103	-5186
:106	-5187
:495	-5188
:585	-5189
:634	-5190
:636	-5191
:645	-5192
:678	-5193
:688	-5194
:696	-5195
:727	-5196
:735	-5197
:749	-5198
:765	-5199
:778	-5200
:787	-5201
:789	-5202
:795	-5203
:798	-5204
:836	-5205
:838	-5206
:839	-5207
:845	-5208
:846	-5209
:847	-5210
:859	-5211
:886	-5212
:895	-5213
:911	-5214
:915	-5215
:924	-5216
:927	-5217
:934	-5218
:951	-5219
:956	-5220
:957	-5221
:964	-5222
:965	-5223
:966	-5224
:974	-5225
:977	-5226
:979	-5227
:982	-5228
:986	-5229
:999	-5230
,0:15	-5231
,0:17	-5232
,0:18	-5233
,1104	-5234
,1107	-5235
,1109	-5236
,1117	-5237
,1122	-5238
,1137	-5239
,1140	-5240
,1150	-5241
,1153	-5242
,1154	-5243
,1168	-5244
,1169	-5245
,1176	-5246
,1182	-5247
,1206	-5248
,1370	-5249
,1429	-5250
,1530	-5251
,21:2	-5252
,36,0	-5253
,50,0	-5254
,5:22	-5255
,61,0	-5256
,6:13	-5257
,6:22	-5258
,73,0	-5259
,85,0	-5260
1,0,9	-5261
11:33	-5262
24:34	-5263
25:35	-5264
25:38	-5265
57:57	-5266
82:0,	-5267
85:0,	-5268
9,0,8	-5269
92:0,	-5270
96:0,	-5271
:0,15	-5272
:1011	-5273
:1017	-5274
:1018	-5275
:1025	-5276
:1027	-5277
:1034	-5278
:1044	-5279
:1051	-5280
:1065	-5281
:1079	-5282
:1089	-5283
:1092	-5284
:1096	-5285
:1098	-5286
:1099	-5287
:1104	-5288
:1106	-5289
:1111	-5290
:1114	-5291
:1124	-5292
:71:6	-5293
:90:1	-5294
,0,138	-5295
,0,156	-5296
,0,158	-5297
,0,159	-5298
,0,170	-5299
,0,172	-5300
,0,177	-5301
,0,178	-5302
,0,179	-5303
,0,187	-5304
,0,190	-5305
,0,192	-5306
,0,203	-5307
,0,212	-5308
,0,214	-5309
,0,218	-5310
,0,227	-5311
,0,236	-5312
,0,243	-5313
,0,257	-5314
,0,695	-5315
,0,696	-5316
,0,698	-5317
,0,701	-5318
,0,706	-5319
,0,707	-5320
,0,710	-5321
,0,720	-5322
,0,723	-5323
,0,732	-5324
,0,735	-5325
,0,740	-5326
,0,745	-5327
,0,753	-5328
,0,754	-5329
,0,755	-5330
,0,762	-5331
,0,774	-5332
,0,783	-5333
,0,784	-5334
,0,789	-5335
,0,792	-5336
,0,794	-5337
,0,799	-5338
,0,802	-5339
,0,808	-5340
,0,816	-5341
,0,818	-5342
,0,822	-5343
,0,825	-5344
,0,831	-5345
,0,835	-5346
,0,839	-5347
,0,847	-5348
,0,854	-5349
,0,858	-5350
,0,888	-5351
,0,895	-5352
,0,921	-5353
,0,928	-5354
,0,935	-5355
,0,944	-5356
,0,956	-5357
,0,963	-5358
,0,970	-5359
,0,971	-5360
,0,980	-5361
,11:37	-5362
,11:38	-5363
,127,0	-5364
,12:17	-5365
,149,0	-5366
,151,0	-5367
,152,0	-5368
,154,0	-5369
,155,0	-5370
,19:26	-5371
,19:47	-5372
,22:23	-5373
,24:33	-5374
,25:37	-5375
,26:52	-5376
,27:43	-5377
,27:55	-5378
,28:45	-5379
,28:52	-5380
0,0,12	-5381
0,60,0	-5382
0,62,0	-5383
0,80,0	-5384
01,0,6	-5385
0:1016	-5386
1,1665	-5387
1,90,0	-5388
10,0,1	-5389
10,0,6	-5390
18,0,6	-5391
1:0,41	-5392
2,71,0	-5393
20,0,3	-5394
3,57,0	-5395
3,89,0	-5396
3,95,0	-5397
30,0,2	-5398
30,0,3	-5399
300,0,	-5400
330,0,	-5401
35,0,6	-5402
4,0,14	-5403
440,0,	-5404
50,0,4	-5405
510,0,	-5406
53,0,6	-5407
57,0,6	-5408
58,0,4	-5409
6,0,11	-5410
60,0,4	-5411
66,0,6	-5412
7,80,0	-5413
7,81,0	-5414
70,0,2	-5415
72,0,6	-5416
8,0,13	-5417
8,75,0	-5418
8,81,0	-5419
80,0,4	-5420
82,0,4	-5421
85,0,8	-5422
9,0,12	-5423
90,0,1	-5424
:29:99	-5425
:89:10	-5426
:970,9	-5427
:99:77	-5428
:99:84	-5429
,0,1018	-5430
,0,1057	-5431
,0,1064	-5432
,0,1101	-5433
,0,1109	-5434
,0,1165	-5435
,0,1185	-5436
,0,1210	-5437
,0,1316	-5438
,0,1623	-5439
,20:21:	-5440
0,0,366	-5441
0,0,401	-5442
0,0,438	-5443
0,0,585	-5444
0,113,0	-5445
0,116,0	-5446
0,129,0	-5447
0,99,13	-5448
0,99,14	-5449
08,89,0	-5450
0:0,80,	-5451
0:99:55	-5452
1,117,0	-5453
1,138,0	-5454
16,0,14	-5455
168,0,3	-5456
1:99:23	-5457
1:99:39	-5458
1:99:43	-5459
2,0,135	-5460
2,0,380	-5461
2,0,616	-5462
2,120,0	-5463
22,87,0	-5464
23,84,0	-5465
257,0,2	-5466
26:0,26	-5467
28,90,0	-5468
3,0,279	-5469
3,0,476	-5470
3,101,0	-5471
306,0,4	-5472
343,0,4	-5473
347,0,5	-5474
349,0,4	-5475
353,0,4	-5476
4,0,335	-5477
4,0,397	-5478
4,111,0	-5479
48,99,0	-5480
56,60,0	-5481
59:0,59	-5482
6,132,0	-5483
7,0,316	-5484
7,0,409	-5485
7,0,410	-5486
72,81,0	-5487
74,60,0	-5488
78,96,0	-5489
8,126,0	-5490
82:0,82	-5491
85:0,85	-5492
9,114,0	-5493
92:0,92	-5494
96:0,96	-5495
9:99:12	-5496
9:99:42	-5497
9:99:49	-5498
9:99:55	-5499
:60:99:	-5500
:99:174	-5501
:99:187	-5502
:99:194	-5503
:99:210	-5504
:99:211	-5505
:99:278	-5506
:99:309	-5507
:99:312	-5508
:99:328	-5509
:99:339	-5510
:99:344	-5511
:99:354	-5512
:99:419	-5513
:99:425	-5514
:99:426	-5515
:99:445	-5516
:99:448	-5517
:99:451	-5518
:99:495	-5519
:99:505	-5520
:99:508	-5521
:99:511	-5522
:99:512	-5523
:99:519	-5524
:99:533	-5525
:99:551	-5526
:99:555	-5527
:99:562	-5528
:99:563	-5529
:99:575	-5530
:99:582	-5531
:99:586	-5532
:99:588	-5533
:99:602	-5534
:99:603	-5535
:99:619	-5536
:99:671	-5537
:99:674	-5538
:99:675	-5539
:99:754	-5540
:99:765	-5541
:99:784	-5542
:99:787	-5543
:99:831	-5544
:99:877	-5545
▁0/1:37	-5546
0:0,40,6	-5547
11,0,397	-5548
16,105,0	-5549
18,132,0	-5550
1:0,51,8	-5551
23:0,23,	-5552
25:0,25,	-5553
32,108,0	-5554
39,126,0	-5555
52,0,533	-5556
52:0,52,	-5557
54,108,0	-5558
5:0,65,8	-5559
6:0,36,6	-5560
711,69,0	-5561
73,102,0	-5562
75,111,0	-5563
75,117,0	-5564
799,69,0	-5565
7:0,27,6	-5566
7:0,37,6	-5567
7:29:99:	-5568
8:31:99:	-5569
905,81,0	-5570
907,78,0	-5571
930,81,0	-5572
955,81,0	-5573
995,90,0	-5574
9:40:99:	-5575
:15,0:15	-5576
:15:0,15	-5577
:17,0:17	-5578
:18,0:18	-5579
:22:99:5	-5580
:35:0,35	-5581
:40:99:8	-5582
:41:99:9	-5583
:50:99:6	-5584
:50:99:7	-5585
:621,0,4	-5586
:91:0,91	-5587
:98:0,98	-5588
:99:1021	-5589
:99:1044	-5590
:99:1045	-5591
:99:1074	-5592
:99:1081	-5593
:99:1095	-5594
:99:1125	-5595
:99:1133	-5596
:99:1134	-5597
:99:1138	-5598
:99:1139	-5599
:99:1174	-5600
:99:1179	-5601
:99:1238	-5602
:99:1244	-5603
:99:1329	-5604
:99:1379	-5605
:99:1433	-5606
:99:1482	-5607
:99:1499	-5608
:99:1524	-5609
:99:1532	-5610
:99:1533	-5611
:99:1537	-5612
:99:1605	-5613
:99:1621	-5614
▁0/1:9,5	-5615
0:0,60,10	-5616
1:0,81,12	-5617
28:51:99:	-5618
333,114,0	-5619
34:0,34,5	-5620
43:0,43,6	-5621
47:0,47,6	-5622
57:0,57,6	-5623
5:0,85,10	-5624
5:35:0,35	-5625
6:0,86,12	-5626
80:0,80,9	-5627
8:0,88,12	-5628
:0,27,324	-5629
:23:99:45	-5630
:29:99:35	-5631
:39:0,39,	-5632
:39:99:65	-5633
:40:99:45	-5634
:40:99:46	-5635
:40:99:72	-5636
:41:99:46	-5637
:41:99:72	-5638
:48:99:15	-5639
:49:99:10	-5640
:69:0,69,	-5641
:711,63,0	-5642
:762,66,0	-5643
:795,72,0	-5644
:805,72,0	-5645
:808,78,0	-5646
:829,72,0	-5647
:844,75,0	-5648
:848,75,0	-5649
:852,75,0	-5650
:861,75,0	-5651
:899,78,0	-5652
:947,84,0	-5653
:954,84,0	-5654
:972,84,0	-5655
:983,87,0	-5656
:985,87,0	-5657
▁0/1:15,5	-5658
▁0/1:20,3	-5659
▁0/1:5,16	-5660
▁0/1:6,15	-5661
▁0/1:6,17	-5662
,24:50:99:	-5663
,24:51:99:	-5664
,26:51:99:	-5665
,28:50:99:	-5666
,31:49:99:	-5667
0,102,1530	-5668
0,105,1575	-5669
0,106,1370	-5670
0:0,60,614	-5671
0:0,60,616	-5672
0:0,60,619	-5673
0:0,60,620	-5674
0:0,60,621	-5675
0:0,60,622	-5676
0:0,60,627	-5677
0:0,60,651	-5678
0:0,60,762	-5679
0:0,60,766	-5680
0:0,60,770	-5681
0:0,60,771	-5682
0:0,60,777	-5683
0:0,60,782	-5684
0:0,60,783	-5685
0:0,60,787	-5686
0:0,60,800	-5687
0:0,60,802	-5688
0:0,60,805	-5689
0:0,60,807	-5690
0:0,60,812	-5691
0:0,60,814	-5692
0:0,60,823	-5693
0:0,60,827	-5694
0:0,60,843	-5695
0:0,60,876	-5696
0:0,60,886	-5697
0:681,60,0	-5698
1364,117,0	-5699
1447,123,0	-5700
1835,126,0	-5701
1:0,61,945	-5702
2:0,32,495	-5703
2:0,62,976	-5704
3:0,63,681	-5705
3:0,63,688	-5706
3:0,63,707	-5707
3:0,63,926	-5708
4:0,24,360	-5709
51:0,51,65	-5710
6:0,66,998	-5711
70:0,70,11	-5712
83:0,83,10	-5713
8:0,68,972	-5714
8:0,68,986	-5715
8:38:99:16	-5716
9:0,39,528	-5717
9:29:99:56	-5718
:1006,87,0	-5719
:1012,87,0	-5720
:1035,87,0	-5721
:1055,93,0	-5722
:1070,93,0	-5723
:1070,96,0	-5724
:1077,93,0	-5725
:1086,93,0	-5726
:1086,96,0	-5727
:1093,96,0	-5728
:1103,96,0	-5729
:1110,96,0	-5730
:1123,96,0	-5731
:1124,96,0	-5732
:1132,96,0	-5733
:24:0,24,4	-5734
:25:0,25,3	-5735
:25:0,25,4	-5736
:26:99:397	-5737
:32:0,32,4	-5738
:43:0,43,5	-5739
:51:0,51,5	-5740
:59:0,59,8	-5741
:67:0,67,7	-5742
:99:330,0,	-5743
:99:460,0,	-5744
:99:520,0,	-5745
:99:590,0,	-5746
:99:620,0,	-5747
:99:680,0,	-5748
:99:710,0,	-5749
▁0/1:12,28	-5750
▁0/1:14,26	-5751
▁0/1:20,28	-5752
▁0/1:22,27	-5753
▁0/1:25,16	-5754
▁0/1:26,23	-5755
▁0/1:28,16	-5756
▁0/1:28,18	-5757
,11:36:99:2	-5758
,15:30:99:3	-5759
,16:40:99:4	-5760
0:1040,90,0	-5761
33:0,33,495	-5762
3:0,83,1163	-5763
3:0,83,1261	-5764
5:0,85,1186	-5765
6:36:0,36,5	-5766
71:0,71,875	-5767
72:0,72,956	-5768
73:0,73,963	-5769
76:0,76,971	-5770
80:0,80,945	-5771
8:38:99:118	-5772
8:38:99:132	-5773
9:0,69,1125	-5774
:29:0,29,56	-5775
:36:0,36,48	-5776
:60:0,60,10	-5777
:70:0,70,11	-5778
:95:0,95,12	-5779
:99:0,99,12	-5780
:99:215,0,3	-5781
:99:243,0,3	-5782
:99:254,0,3	-5783
:99:265,0,3	-5784
:99:268,0,4	-5785
:99:271,0,3	-5786
:99:271,0,4	-5787
:99:288,0,3	-5788
:99:307,0,4	-5789
:99:317,0,6	-5790
:99:368,0,5	-5791
:99:371,0,5	-5792
:99:378,0,5	-5793
:99:389,0,5	-5794
:99:395,0,5	-5795
:99:406,0,5	-5796
:99:408,0,5	-5797
:99:451,0,5	-5798
:99:452,0,5	-5799
:99:454,0,5	-5800
:99:456,0,4	-5801
:99:459,0,4	-5802
:99:547,0,3	-5803
:99:549,0,3	-5804
:99:563,0,4	-5805
:99:581,0,3	-5806
:99:585,0,3	-5807
:99:587,0,3	-5808
:99:601,0,3	-5809
:99:602,0,5	-5810
:99:604,0,3	-5811
:99:616,0,5	-5812
:99:618,0,3	-5813
:99:619,0,3	-5814
:99:623,0,5	-5815
:99:627,0,6	-5816
:99:638,0,3	-5817
:99:639,0,6	-5818
:99:664,0,3	-5819
:99:680,0,6	-5820
:99:701,0,5	-5821
▁0/0:12,0:1	-5822
▁0/1:7,6:13	-5823
▁0/1:8,21:2	-5824
▁0/1:8,22:3	-5825
▁0/1:8,6:14	-5826
▁1/1:0,10:1	-5827
▁1/1:0,58:5	-5828
▁1/1:1,38:3	-5829
,12:29:99:28	-5830
,12:29:99:33	-5831
,12:30:99:29	-5832
,12:31:99:26	-5833
,13:29:99:35	-5834
,13:30:99:32	-5835
,13:30:99:33	-5836
,13:30:99:35	-5837
,14:31:99:36	-5838
,14:31:99:38	-5839
,15:30:99:36	-5840
,15:31:99:44	-5841
,15:31:99:45	-5842
,19:41:99:56	-5843
0:99:472,0,3	-5844
0:99:499,0,3	-5845
1:99:449,0,4	-5846
2:99:481,0,4	-5847
75:0,75,1003	-5848
75:0,75,1012	-5849
75:0,75,1041	-5850
75:0,75,1115	-5851
75:0,75,1159	-5852
76:0,76,1034	-5853
76:0,76,1079	-5854
78:0,78,1045	-5855
78:0,78,1118	-5856
79:0,79,1127	-5857
84:0,84,1234	-5858
9:99:452,0,6	-5859
9:99:483,0,5	-5860
:23:0,23,447	-5861
:23:0,23,536	-5862
:25:0,25,450	-5863
:25:0,25,495	-5864
:29:0,29,469	-5865
:33:0,33,484	-5866
:39:0,39,585	-5867
:41:0,41,555	-5868
:42:0,42,553	-5869
:60:0,60,638	-5870
:60:0,60,662	-5871
:60:0,60,677	-5872
:60:0,60,678	-5873
:60:0,60,680	-5874
:60:0,60,689	-5875
:60:0,60,702	-5876
:60:0,60,704	-5877
:60:0,60,901	-5878
:60:0,60,905	-5879
:60:0,60,951	-5880
:60:0,60,970	-5881
:61:0,61,701	-5882
:61:0,61,735	-5883
:61:0,61,743	-5884
:61:0,61,751	-5885
:61:0,61,753	-5886
:61:0,61,756	-5887
:61:0,61,758	-5888
:61:0,61,759	-5889
:61:0,61,771	-5890
:61:0,61,776	-5891
:61:0,61,783	-5892
:61:0,61,792	-5893
:61:0,61,802	-5894
:61:0,61,816	-5895
:61:0,61,823	-5896
:61:0,61,838	-5897
:61:0,61,845	-5898
:61:0,61,879	-5899
:61:0,61,882	-5900
:61:0,61,901	-5901
:61:0,61,905	-5902
:61:0,61,929	-5903
:61:0,61,930	-5904
:61:0,61,942	-5905
:61:0,61,981	-5906
:62:0,62,765	-5907
:62:0,62,781	-5908
:62:0,62,792	-5909
:62:0,62,804	-5910
:62:0,62,810	-5911
:62:0,62,811	-5912
:62:0,62,818	-5913
:62:0,62,827	-5914
:62:0,62,835	-5915
:62:0,62,841	-5916
:62:0,62,851	-5917
:62:0,62,879	-5918
:62:0,62,888	-5919
:62:0,62,903	-5920
:62:0,62,916	-5921
:62:0,62,950	-5922
:62:0,62,973	-5923
:62:0,62,986	-5924
:63:0,63,666	-5925
:63:0,63,688	-5926
:63:0,63,691	-5927
:63:0,63,697	-5928
:63:0,63,713	-5929
:63:0,63,718	-5930
:63:0,63,720	-5931
:63:0,63,740	-5932
:63:0,63,772	-5933
:63:0,63,776	-5934
:63:0,63,837	-5935
:63:0,63,881	-5936
:63:0,63,937	-5937
:63:0,63,957	-5938
:63:0,63,984	-5939
:63:0,63,988	-5940
:63:0,63,998	-5941
:64:0,64,789	-5942
:64:0,64,790	-5943
:64:0,64,839	-5944
:64:0,64,842	-5945
:64:0,64,866	-5946
:64:0,64,879	-5947
:64:0,64,881	-5948
:64:0,64,890	-5949
:64:0,64,914	-5950
:64:0,64,925	-5951
:64:0,64,940	-5952
:64:0,64,944	-5953
:64:0,64,963	-5954
:64:0,64,967	-5955
:65:0,65,672	-5956
:65:0,65,730	-5957
:65:0,65,739	-5958
:65:0,65,782	-5959
:65:0,65,792	-5960
:65:0,65,809	-5961
:65:0,65,830	-5962
:65:0,65,835	-5963
:65:0,65,843	-5964
:65:0,65,871	-5965
:65:0,65,875	-5966
:65:0,65,876	-5967
:65:0,65,906	-5968
:65:0,65,907	-5969
:65:0,65,915	-5970
:65:0,65,917	-5971
:65:0,65,919	-5972
:65:0,65,980	-5973
:66:0,66,700	-5974
:66:0,66,733	-5975
:66:0,66,741	-5976
:66:0,66,744	-5977
:66:0,66,747	-5978
:66:0,66,752	-5979
:66:0,66,764	-5980
:66:0,66,772	-5981
:66:0,66,780	-5982
:66:0,66,795	-5983
:66:0,66,796	-5984
:66:0,66,814	-5985
:66:0,66,840	-5986
:66:0,66,856	-5987
:66:0,66,862	-5988
:66:0,66,865	-5989
:66:0,66,885	-5990
:66:0,66,906	-5991
:66:0,66,909	-5992
:66:0,66,910	-5993
:66:0,66,937	-5994
:66:0,66,977	-5995
:66:0,66,980	-5996
:67:0,67,860	-5997
:67:0,67,923	-5998
:67:0,67,937	-5999
:67:0,67,945	-6000
:67:0,67,947	-6001
:67:0,67,954	-6002
:67:0,67,957	-6003
:67:0,67,958	-6004
:68:0,68,812	-6005
:68:0,68,825	-6006
:68:0,68,859	-6007
:68:0,68,881	-6008
:68:0,68,907	-6009
:68:0,68,968	-6010
:68:0,68,969	-6011
:68:0,68,990	-6012
:69:0,69,795	-6013
:69:0,69,808	-6014
:69:0,69,825	-6015
:69:0,69,835	-6016
:69:0,69,842	-6017
:69:0,69,871	-6018
:69:0,69,884	-6019
:69:0,69,898	-6020
:69:0,69,904	-6021
:69:0,69,913	-6022
:69:0,69,921	-6023
:69:0,69,922	-6024
:69:0,69,934	-6025
:69:0,69,945	-6026
:69:0,69,949	-6027
:69:0,69,959	-6028
:69:0,69,975	-6029
:69:0,69,981	-6030
:69:0,69,984	-6031
:69:0,69,994	-6032
:70:0,70,949	-6033
:70:0,70,970	-6034
:71:0,71,923	-6035
:72:0,72,894	-6036
:72:0,72,945	-6037
:72:0,72,966	-6038
:72:0,72,967	-6039
:73:0,73,932	-6040
:74:0,74,789	-6041
:74:0,74,933	-6042
:74:0,74,981	-6043
:75:0,75,906	-6044
:75:0,75,929	-6045
:75:0,75,950	-6046
:75:0,75,955	-6047
:99:0,105,15	-6048
▁0/1:10,20:3	-6049
▁0/1:10,4:14	-6050
▁0/1:13,4:17	-6051
▁0/1:16,6:22	-6052
▁0/1:17,5:22	-6053
▁0/1:19,6:25	-6054
▁0/1:26,24:5	-6055
▁0/1:28,23:5	-6056
▁0/1:5,12:17	-6057
▁0/1:7,19:26	-6058
▁0/1:9,24:33	-6059
▁1/1:0,57:57	-6060
▁1/1:1,22:23	-6061
▁1/1:1,37:38	-6062
6:36:0,36,540	-6063
:61:0,61,1080	-6064
:64:0,64,1061	-6065
:67:0,67,1043	-6066
:67:0,67,1077	-6067
:68:0,68,1035	-6068
:68:0,68,1111	-6069
:69:0,69,1017	-6070
:69:0,69,1019	-6071
:70:0,70,1080	-6072
:71:0,71,1153	-6073
:72:0,72,1042	-6074
:72:0,72,1061	-6075
:77:0,77,1093	-6076
:78:0,78,1046	-6077
:78:0,78,1100	-6078
:79:0,79,1015	-6079
:90:0,90,1160	-6080
:90:0,90,1172	-6081
:90:0,90,1194	-6082
:90:0,90,1223	-6083
:93:0,93,1348	-6084
:99:1117,99,0	-6085
:99:1126,99,0	-6086
:99:1171,99,0	-6087
▁0/1:10,24:34	-6088
▁0/1:10,25:35	-6089
▁0/1:12,25:37	-6090
▁0/1:13,25:38	-6091
▁0/1:16,27:43	-6092
▁0/1:17,28:45	-6093
▁0/1:23,29:52	-6094
▁0/1:24,13:37	-6095
▁0/1:24,20:44	-6096
▁0/1:24,28:52	-6097
▁0/1:25,20:45	-6098
▁0/1:26,11:37	-6099
▁0/1:26,19:45	-6100
▁0/1:26,26:52	-6101
▁0/1:27,11:38	-6102
▁0/1:27,16:43	-6103
▁0/1:28,19:47	-6104
▁0/1:28,27:55	-6105
▁1/1:0,20:20:	-6106
▁1/1:1,20:21:	-6107
:24:99:354,0,3	-6108
:25:99:333,0,3	-6109
:26:99:313,0,3	-6110
:26:99:321,0,3	-6111
:26:99:348,0,3	-6112
:26:99:378,0,3	-6113
:28:99:344,0,4	-6114
:28:99:361,0,3	-6115
:28:99:448,0,3	-6116
:29:99:361,0,3	-6117
:29:99:434,0,3	-6118
:29:99:439,0,3	-6119
:32:99:315,0,5	-6120
:99:1182,102,0	-6121
:99:1192,105,0	-6122
:99:1208,102,0	-6123
:99:1217,105,0	-6124
:99:1218,105,0	-6125
:99:1227,105,0	-6126
:99:1230,105,0	-6127
:99:1269,108,0	-6128
:99:1277,108,0	-6129
:99:1439,126,0	-6130
▁0/0:19,0:19:4	-6131
▁0/0:41,0:41:6	-6132
▁1/1:0,19:19:6	-6133
7:99:1275,111,0	-6134
▁0/0:10,0:10:26	-6135
▁0/0:16,0:16:26	-6136
▁0/0:19,0:19:32	-6137
▁1/1:0,11:11:33	-6138
▁1/1:0,24:24:78	-6139
▁1/1:0,29:29:85	-6140
▁1/1:0,29:29:88	-6141
▁1/1:0,29:29:93	-6142
▁1/1:1,31:32:86	-6143
▁0/1:21,9:30:99:	-6144
▁0/1:22,7:29:99:	-6145
▁0/1:23,8:31:99:	-6146
▁0/1:25,24:49:99	-6147
▁0/1:27,22:49:99	-6148
▁0/1:6,15:21:99:	-6149
▁0/1:6,9:15:99:2	-6150
▁0/1:7,7:14:99:1	-6151
▁0/1:7,8:15:99:2	-6152
▁0/1:9,6:15:99:1	-6153
▁0/1:9,9:18:99:1	-6154
▁1/1:0,13:13:39:	-6155
▁1/1:0,59:59:99:	-6156
▁1/1:1,39:40:99:	-6157
0:7	-6158
123	-6159
142	-6160
175	-6161
202	-6162
203	-6163
207	-6164
229	-6165
243	-6166
252	-6167
264	-6168
266	-6169
285	-6170
294	-6171
299	-6172
308	-6173
319	-6174
320	-6175
327	-6176
336	-6177
370	-6178
376	-6179
415	-6180
427	-6181
444	-6182
445	-6183
466	-6184
467	-6185
5,2	-6186
501	-6187
514	-6188
536	-6189
543	-6190
551	-6191
561	-6192
568	-6193
569	-6194
658	-6195
691	-6196
697	-6197
725	-6198
750	-6199
752	-6200
754	-6201
761	-6202
762	-6203
778	-6204
782	-6205
787	-6206
817	-6207
818	-6208
828	-6209
836	-6210
848	-6211
864	-6212
869	-6213
879	-6214
882	-6215
887	-6216
918	-6217
934	-6218
945	-6219
950	-6220
:81	-6221
:85	-6222
,371	-6223
,432	-6224
,462	-6225
,465	-6226
,470	-6227
,489	-6228
,491	-6229
,492	-6230
,497	-6231
,499	-6232
,544	-6233
,562	-6234
,563	-6235
,566	-6236
,580	-6237
,598	-6238
,602	-6239
,630	-6240
,673	-6241
,706	-6242
,709	-6243
,721	-6244
,738	-6245
,743	-6246
,755	-6247
,770	-6248
,771	-6249
,782	-6250
,794	-6251
,844	-6252
,865	-6253
,871	-6254
,882	-6255
,902	-6256
0,13	-6257
1156	-6258
1202	-6259
1206	-6260
1253	-6261
1268	-6262
1282	-6263
1286	-6264
1291	-6265
1321	-6266
1349	-6267
1354	-6268
1355	-6269
1357	-6270
1372	-6271
1384	-6272
1395	-6273
1404	-6274
1405	-6275
1409	-6276
1411	-6277
1441	-6278
1444	-6279
1589	-6280
1821	-6281
2,56	-6282
30,6	-6283
4:26	-6284
53,9	-6285
558,	-6286
7,0,	-6287
70,1	-6288
7:12	-6289
:105	-6290
:10:	-6291
:21:	-6292
:498	-6293
:49:	-6294
:528	-6295
:555	-6296
:558	-6297
:577	-6298
:587	-6299
:607	-6300
:608	-6301
:619	-6302
:644	-6303
:674	-6304
:679	-6305
:694	-6306
:697	-6307
:737	-6308
:757	-6309
:766	-6310
:819	-6311
:825	-6312
:837	-6313
:857	-6314
:861	-6315
:864	-6316
:866	-6317
:871	-6318
:914	-6319
:91:	-6320
:921	-6321
:935	-6322
:936	-6323
:938	-6324
:944	-6325
:949	-6326
:955	-6327
:987	-6328
:997	-6329
:998	-6330
,0,20	-6331
,1102	-6332
,1105	-6333
,1106	-6334
,1114	-6335
,1126	-6336
,1129	-6337
,1133	-6338
,1144	-6339
,1151	-6340
,1156	-6341
,1157	-6342
,1160	-6343
,1161	-6344
,1162	-6345
,1165	-6346
,1180	-6347
,1183	-6348
,1184	-6349
,1187	-6350
,1188	-6351
,1226	-6352
,1303	-6353
,1415	-6354
,1657	-6355
,33,0	-6356
,41,0	-6357
,47,0	-6358
,53,0	-6359
,64,0	-6360
,76,0	-6361
,79,0	-6362
0:107	-6363
0:50:	-6364
25:55	-6365
27:57	-6366
3,0,9	-6367
30:43	-6368
31:44	-6369
33:34	-6370
34:35	-6371
34:54	-6372
4,0,8	-6373
43:44	-6374
45:46	-6375
52,0:	-6376
9:996	-6377
:0,0:	-6378
:0,17	-6379
:1016	-6380
:1028	-6381
:1037	-6382
:1038	-6383
:1042	-6384
:1046	-6385
:1057	-6386
:1062	-6387
:1064	-6388
:1067	-6389
:1075	-6390
:1082	-6391
:1084	-6392
:1087	-6393
:1097	-6394
:1105	-6395
:1107	-6396
:1108	-6397
:1117	-6398
:1121	-6399
:1127	-6400
:1139	-6401
:1157	-6402
:1216	-6403
:1349	-6404
:743,	-6405
:80:1	-6406
:830,	-6407
:953,	-6408
:970,	-6409
,0,105	-6410
,0,106	-6411
,0,118	-6412
,0,123	-6413
,0,125	-6414
,0,129	-6415
,0,137	-6416
,0,140	-6417
,0,149	-6418
,0,150	-6419
,0,157	-6420
,0,160	-6421
,0,164	-6422
,0,174	-6423
,0,186	-6424
,0,193	-6425
,0,201	-6426
,0,210	-6427
,0,216	-6428
,0,226	-6429
,0,250	-6430
,0,271	-6431
,0,617	-6432
,0,709	-6433
,0,724	-6434
,0,737	-6435
,0,759	-6436
,0,765	-6437
,0,775	-6438
,0,777	-6439
,0,779	-6440
,0,781	-6441
,0,785	-6442
,0,791	-6443
,0,793	-6444
,0,795	-6445
,0,819	-6446
,0,830	-6447
,0,833	-6448
,0,834	-6449
,0,837	-6450
,0,843	-6451
,0,852	-6452
,0,853	-6453
,0,862	-6454
,0,870	-6455
,0,875	-6456
,0,882	-6457
,0,883	-6458
,0,887	-6459
,0,889	-6460
,0,942	-6461
,0,945	-6462
,0,953	-6463
,0,989	-6464
,0,990	-6465
,0,997	-6466
,0,999	-6467
,130,0	-6468
,133,0	-6469
,165,0	-6470
,19:25	-6471
,19:48	-6472
,21:28	-6473
,23:24	-6474
,24:25	-6475
,26:35	-6476
,26:53	-6477
,27:42	-6478
,27:54	-6479
,28:54	-6480
,29:45	-6481
,29:57	-6482
,30:46	-6483
,30:54	-6484
0,0,16	-6485
0,57,0	-6486
0,71,0	-6487
0,77,0	-6488
0,89,0	-6489
0,92,0	-6490
02,0,6	-6491
04,0,6	-6492
0:1027	-6493
0:1034	-6494
0:1039	-6495
0:1045	-6496
0:1049	-6497
0:99:3	-6498
1,1444	-6499
16,0,1	-6500
1:0,31	-6501
1:99:8	-6502
2,56,0	-6503
2,65,0	-6504
20,0,2	-6505
20,0,6	-6506
23,0,6	-6507
26,0,6	-6508
3,0,10	-6509
3,0,69	-6510
3,68,0	-6511
3,71,0	-6512
3,80,0	-6513
370,0,	-6514
38,0,6	-6515
40,0,6	-6516
41,0,6	-6517
46,0,6	-6518
49,0:4	-6519
5,68,0	-6520
5,90,0	-6521
50,0,3	-6522
50,0,5	-6523
50,0,6	-6524
52,0,4	-6525
530,0,	-6526
56,0,5	-6527
58,0,5	-6528
60,0,6	-6529
63,0,6	-6530
65,0,6	-6531
7,1357	-6532
76,0,2	-6533
8,0,12	-6534
91,0,6	-6535
97,0,6	-6536
:8,0:8	-6537
:95:11	-6538
:973,9	-6539
:99:83	-6540
:99:87	-6541
,0,1000	-6542
,0,1059	-6543
,0,1094	-6544
,0,1100	-6545
,0,1125	-6546
,0,1129	-6547
,0,1138	-6548
,0,1150	-6549
,0,1159	-6550
,0,1215	-6551
,0,1219	-6552
,0,1223	-6553
,0,1239	-6554
,0,1263	-6555
,0,1272	-6556
,0,1273	-6557
,0,1274	-6558
,0,1284	-6559
,0,1335	-6560
,0,1339	-6561
,0,1348	-6562
,0,1390	-6563
,0,1399	-6564
,0,1469	-6565
,0,1532	-6566
,0,1542	-6567
,0,1573	-6568
,0,1586	-6569
,0,1774	-6570
,0,1826	-6571
,0,1886	-6572
0,0,330	-6573
0,0,358	-6574
0,0,368	-6575
0,0,423	-6576
0,0,442	-6577
0,0,448	-6578
0,0,474	-6579
0,0,487	-6580
0,0,513	-6581
0,0,529	-6582
0,119,0	-6583
05,87,0	-6584
0:99:20	-6585
0:99:39	-6586
1,0,323	-6587
1,0,400	-6588
1,0,402	-6589
1,0,422	-6590
1,0,441	-6591
1,0,560	-6592
1,0,602	-6593
1,101,0	-6594
1,104,0	-6595
1,120,0	-6596
14,0,11	-6597
159,0,3	-6598
1:99:24	-6599
1:99:36	-6600
1:99:57	-6601
1:99:85	-6602
2,0,303	-6603
2,0,359	-6604
2,0,519	-6605
2,0,557	-6606
2,0,646	-6607
2,117,0	-6608
2,122,0	-6609
2,147,0	-6610
201,0,3	-6611
219,0,3	-6612
222,0,3	-6613
22:99:1	-6614
24:0,24	-6615
251,0,2	-6616
26,90,0	-6617
263,0,2	-6618
27,99,0	-6619
286,0,2	-6620
2:0,22,	-6621
3,0,223	-6622
3,0,464	-6623
3,104,0	-6624
3,105,0	-6625
307,0,2	-6626
309,0,5	-6627
315,0,5	-6628
32,87,0	-6629
328,0,2	-6630
347,0,4	-6631
36,90,0	-6632
4,0,509	-6633
4,113,0	-6634
411,0,6	-6635
42,0,11	-6636
42,81,0	-6637
5,0,420	-6638
5,0,528	-6639
5,113,0	-6640
52,0:52	-6641
553,0,4	-6642
56:0,56	-6643
597,0,4	-6644
6,0,327	-6645
6,0,413	-6646
6,0,439	-6647
6,0,466	-6648
6,0,489	-6649
6,0,840	-6650
6,162,0	-6651
7,0,417	-6652
7,0,420	-6653
7,0,486	-6654
7,0,543	-6655
7,0,591	-6656
7,113,0	-6657
7,117,0	-6658
735,0,6	-6659
7:99:11	-6660
8,0,365	-6661
8,0,384	-6662
8,0,397	-6663
8,0,500	-6664
8,107,0	-6665
8,125,0	-6666
89,99,0	-6667
9,0,276	-6668
9,0,462	-6669
9,0,492	-6670
9,0,502	-6671
9,0,516	-6672
9,0,590	-6673
9,110,0	-6674
9,117,0	-6675
92,0,12	-6676
9:0,39,	-6677
9:99:10	-6678
9:99:38	-6679
9:99:79	-6680
:0,33,6	-6681
:10,0:1	-6682
:99:121	-6683
:99:143	-6684
:99:161	-6685
:99:168	-6686
:99:180	-6687
:99:186	-6688
:99:247	-6689
:99:275	-6690
:99:285	-6691
:99:294	-6692
:99:318	-6693
:99:321	-6694
:99:323	-6695
:99:325	-6696
:99:332	-6697
:99:337	-6698
:99:351	-6699
:99:359	-6700
:99:368	-6701
:99:384	-6702
:99:394	-6703
:99:396	-6704
:99:404	-6705
:99:409	-6706
:99:411	-6707
:99:415	-6708
:99:418	-6709
:99:421	-6710
:99:423	-6711
:99:439	-6712
:99:441	-6713
:99:449	-6714
:99:456	-6715
:99:481	-6716
:99:484	-6717
:99:488	-6718
:99:521	-6719
:99:529	-6720
:99:535	-6721
:99:537	-6722
:99:539	-6723
:99:544	-6724
:99:545	-6725
:99:548	-6726
:99:557	-6727
:99:564	-6728
:99:566	-6729
:99:576	-6730
:99:577	-6731
:99:579	-6732
:99:598	-6733
:99:612	-6734
:99:618	-6735
:99:645	-6736
:99:648	-6737
:99:673	-6738
:99:687	-6739
:99:693	-6740
:99:703	-6741
:99:726	-6742
:99:733	-6743
:99:741	-6744
:99:742	-6745
:99:776	-6746
:99:783	-6747
:99:802	-6748
:99:805	-6749
:99:837	-6750
:99:939	-6751
:99:945	-6752
:99:956	-6753
▁0/1:3,	-6754
▁1/1:3,	-6755
0,0,1029	-6756
0,0,1210	-6757
0:0,30,6	-6758
0:0,70,1	-6759
0:99:274	-6760
0:99:526	-6761
1,0,1340	-6762
1,0,2265	-6763
12,0,327	-6764
12,114,0	-6765
14,0,562	-6766
15,0,678	-6767
15,105,0	-6768
16,0,633	-6769
17,0,990	-6770
18,114,0	-6771
19,114,0	-6772
19,117,0	-6773
1:0,61,6	-6774
22,120,0	-6775
249,0,11	-6776
25,114,0	-6777
26,132,0	-6778
2:99:443	-6779
34,0,436	-6780
34,111,0	-6781
36,0,370	-6782
36,108,0	-6783
36,114,0	-6784
38,114,0	-6785
39,0,496	-6786
3:99:462	-6787
40:0,40,	-6788
42,0,280	-6789
44,110,0	-6790
45,0,322	-6791
45,0,639	-6792
45,105,0	-6793
48,108,0	-6794
50,0:50:	-6795
51,0,780	-6796
53:0,53,	-6797
55,0,625	-6798
558,39,0	-6799
564,59,0	-6800
58,0,787	-6801
5:0,35,6	-6802
71,0,400	-6803
71,0,469	-6804
71,0,824	-6805
73,108,0	-6806
744,69,0	-6807
75,120,0	-6808
76,111,0	-6809
761,69,0	-6810
78,111,0	-6811
78,117,0	-6812
795,69,0	-6813
797,69,0	-6814
7:99:110	-6815
809,69,0	-6816
811,69,0	-6817
833,81,0	-6818
839,81,0	-6819
84,0,310	-6820
840,81,0	-6821
86,0,971	-6822
901,81,0	-6823
905,78,0	-6824
906,75,0	-6825
906,78,0	-6826
916,81,0	-6827
920,81,0	-6828
925,81,0	-6829
933,81,0	-6830
934,81,0	-6831
935,81,0	-6832
94,0,317	-6833
943,81,0	-6834
945,81,0	-6835
948,81,0	-6836
952,81,0	-6837
957,81,0	-6838
958,81,0	-6839
963,81,0	-6840
975,90,0	-6841
9:99:574	-6842
:0:0,0,2	-6843
:12:99:2	-6844
:17:0,17	-6845
:19:0,19	-6846
:23,0:23	-6847
:27,0:27	-6848
:41:0,41	-6849
:41:99:7	-6850
:50:99:9	-6851
:635,0,4	-6852
:651,0,5	-6853
:659,0,4	-6854
:665,0,4	-6855
:99:1005	-6856
:99:1009	-6857
:99:1013	-6858
:99:1015	-6859
:99:1037	-6860
:99:1039	-6861
:99:1041	-6862
:99:1043	-6863
:99:1056	-6864
:99:1079	-6865
:99:1082	-6866
:99:1083	-6867
:99:1092	-6868
:99:1094	-6869
:99:1096	-6870
:99:1135	-6871
:99:1211	-6872
:99:1213	-6873
:99:1224	-6874
:99:1235	-6875
:99:1304	-6876
:99:1341	-6877
:99:1352	-6878
:99:1373	-6879
:99:1389	-6880
:99:1405	-6881
:99:1418	-6882
:99:1442	-6883
:99:1473	-6884
:99:1481	-6885
:99:1492	-6886
:99:1495	-6887
:99:1506	-6888
:99:1538	-6889
:99:1539	-6890
:99:1554	-6891
:99:1557	-6892
:99:1581	-6893
:99:1604	-6894
:99:1606	-6895
:99:1674	-6896
:99:1821	-6897
▁0/0:51,	-6898
▁0/1:6,5	-6899
▁0/1:6,8	-6900
0,99,1333	-6901
02,0,1272	-6902
0:50:99:2	-6903
0:50:99:5	-6904
10,0,1332	-6905
1008,89,0	-6906
101,110,0	-6907
11,0,1284	-6908
23,0,1350	-6909
24:0,24,2	-6910
27,0,1273	-6911
28:0,28,6	-6912
315,114,0	-6913
324,114,0	-6914
329,114,0	-6915
37:0,37,6	-6916
3:0,63,74	-6917
42:0,42,5	-6918
54:0,54,5	-6919
55:0,55,8	-6920
56:0,56,9	-6921
58:0,58,9	-6922
60,0,1300	-6923
7:0,87,10	-6924
7:27:99:1	-6925
7:99:1246	-6926
88,0,1057	-6927
92:0,92,1	-6928
:0,24,505	-6929
:25:99:45	-6930
:28:0,28,	-6931
:29:99:43	-6932
:29:99:52	-6933
:29:99:56	-6934
:29:99:71	-6935
:31:99:32	-6936
:39:99:70	-6937
:39:99:71	-6938
:39:99:73	-6939
:40:99:39	-6940
:40:99:43	-6941
:40:99:44	-6942
:40:99:48	-6943
:40:99:71	-6944
:41:99:10	-6945
:41:99:56	-6946
:41:99:76	-6947
:47:99:10	-6948
:495,45,0	-6949
:50:99:73	-6950
:622,57,0	-6951
:641,57,0	-6952
:652,45,0	-6953
:659,63,0	-6954
:684,66,0	-6955
:688,63,0	-6956
:701,63,0	-6957
:714,63,0	-6958
:716,66,0	-6959
:725,66,0	-6960
:756,66,0	-6961
:763,66,0	-6962
:773,72,0	-6963
:807,72,0	-6964
:809,72,0	-6965
:815,72,0	-6966
:827,72,0	-6967
:833,72,0	-6968
:843,75,0	-6969
:853,75,0	-6970
:856,75,0	-6971
:870,78,0	-6972
:872,78,0	-6973
:873,78,0	-6974
:878,78,0	-6975
:880,75,0	-6976
:887,78,0	-6977
:888,78,0	-6978
:890,78,0	-6979
:891,78,0	-6980
:892,78,0	-6981
:895,78,0	-6982
:897,78,0	-6983
:911,84,0	-6984
:917,78,0	-6985
:917,83,0	-6986
:918,87,0	-6987
:928,84,0	-6988
:950,87,0	-6989
:960,84,0	-6990
:961,84,0	-6991
:962,84,0	-6992
:962,93,0	-6993
:964,84,0	-6994
:966,84,0	-6995
:968,93,0	-6996
:970,87,0	-6997
:973,84,0	-6998
:973,87,0	-6999
:976,84,0	-7000
:978,84,0	-7001
:986,84,0	-7002
:991,84,0	-7003
:991,87,0	-7004
:996,84,0	-7005
:99:0,108	-7006
▁0/1:10,5	-7007
▁0/1:11,2	-7008
▁0/1:12,5	-7009
▁0/1:14,4	-7010
▁0/1:20,6	-7011
▁0/1:5,13	-7012
▁0/1:5,14	-7013
▁0/1:5,15	-7014
▁0/1:6,18	-7015
▁1/1:2,34	-7016
,12:39:99:	-7017
,16:49:99:	-7018
,22:50:99:	-7019
,29:50:99:	-7020
0,107,1357	-7021
0,108,1620	-7022
0:0,60,577	-7023
0:0,60,602	-7024
0:0,60,603	-7025
0:0,60,608	-7026
0:0,60,617	-7027
0:0,60,641	-7028
0:0,60,642	-7029
0:0,60,752	-7030
0:0,60,756	-7031
0:0,60,772	-7032
0:0,60,775	-7033
0:0,60,780	-7034
0:0,60,784	-7035
0:0,60,785	-7036
0:0,60,786	-7037
0:0,60,795	-7038
0:0,60,811	-7039
0:0,60,815	-7040
0:0,60,825	-7041
0:0,60,832	-7042
0:0,60,833	-7043
0:0,60,850	-7044
0:0,60,856	-7045
0:0,60,862	-7046
0:0,60,863	-7047
0:0,60,890	-7048
0:0,80,904	-7049
0:656,60,0	-7050
0:874,60,0	-7051
1242,120,0	-7052
1321,119,0	-7053
1401,123,0	-7054
1418,123,0	-7055
1424,123,0	-7056
1:0,61,751	-7057
1:0,61,977	-7058
249,0,1168	-7059
280,0,1210	-7060
2:22:0,22,	-7061
3:0,63,653	-7062
3:0,63,699	-7063
3:0,63,710	-7064
3:0,63,711	-7065
3:0,63,918	-7066
3:0,83,119	-7067
4:0,34,554	-7068
4:0,64,945	-7069
4:0,64,968	-7070
5:0,65,909	-7071
5:0,65,956	-7072
5:0,65,972	-7073
6:0,36,526	-7074
6:0,36,539	-7075
6:0,66,962	-7076
7:0,67,884	-7077
7:0,67,953	-7078
7:0,67,960	-7079
81:0,81,12	-7080
82:0,82,10	-7081
8:0,68,983	-7082
9:0,39,573	-7083
9:0,69,982	-7084
9:39:99:56	-7085
9:996,89,0	-7086
:1001,87,0	-7087
:1003,87,0	-7088
:1004,87,0	-7089
:1009,84,0	-7090
:1010,87,0	-7091
:1010,96,0	-7092
:1014,87,0	-7093
:1014,92,0	-7094
:1015,87,0	-7095
:1017,87,0	-7096
:1024,87,0	-7097
:1026,87,0	-7098
:1052,93,0	-7099
:1054,93,0	-7100
:1054,95,0	-7101
:1058,93,0	-7102
:1071,93,0	-7103
:1071,96,0	-7104
:1074,93,0	-7105
:1075,93,0	-7106
:1080,93,0	-7107
:1081,93,0	-7108
:1088,96,0	-7109
:1090,93,0	-7110
:1091,96,0	-7111
:1100,96,0	-7112
:1101,93,0	-7113
:1104,96,0	-7114
:1111,78,0	-7115
:1111,96,0	-7116
:1120,96,0	-7117
:1121,96,0	-7118
:1125,96,0	-7119
:23:99:406	-7120
:24:99:366	-7121
:24:99:399	-7122
:25:99:361	-7123
:25:99:371	-7124
:25:99:405	-7125
:27:99:462	-7126
:27:99:534	-7127
:28:99:562	-7128
:29:99:405	-7129
:32:0,32,5	-7130
:33:0,33,6	-7131
:41:0,41,5	-7132
:41:0,41,6	-7133
:50:0,50,6	-7134
:52:0,52,6	-7135
:55:0,55,6	-7136
:84:0,84,9	-7137
:99:290,0,	-7138
:99:390,0,	-7139
:99:450,0,	-7140
:99:530,0,	-7141
:99:570,0,	-7142
:99:610,0,	-7143
:99:670,0,	-7144
▁0/1:30,14	-7145
,10:35:99:2	-7146
,12:29:99:2	-7147
,14:31:99:5	-7148
,29:40:99:8	-7149
0:0,80,1017	-7150
0:0,80,1106	-7151
0:1014,90,0	-7152
0:1016,90,0	-7153
0:1027,90,0	-7154
0:1034,90,0	-7155
0:1039,90,0	-7156
0:1043,90,0	-7157
0:1045,90,0	-7158
0:1049,90,0	-7159
0:33:0,33,6	-7160
0:99:430,0,	-7161
1:0,61,1017	-7162
1:0,61,1030	-7163
1:0,61,1046	-7164
1:0,81,1058	-7165
1:0,81,1154	-7166
1:20:0,20,3	-7167
25:0,25,405	-7168
27:0,27,388	-7169
2:0,62,1033	-7170
2:0,62,1144	-7171
2:0,82,1190	-7172
2:0,82,1223	-7173
34:35:95:11	-7174
3:0,83,1139	-7175
4:0,64,1023	-7176
5:0,85,1098	-7177
5:99:590,0,	-7178
6:0,66,1001	-7179
70:0,70,849	-7180
70:0,70,929	-7181
70:0,70,959	-7182
70:0,70,997	-7183
71:0,71,993	-7184
72:0,72,925	-7185
72:0,72,960	-7186
72:0,72,964	-7187
72:0,72,980	-7188
73:0,73,948	-7189
74:0,74,904	-7190
74:0,74,907	-7191
74:0,74,937	-7192
74:0,74,979	-7193
75:0,75,877	-7194
75:0,75,925	-7195
78:0,78,943	-7196
7:0,67,1008	-7197
7:0,87,1233	-7198
8:38:99:116	-7199
8:38:99:119	-7200
8:38:99:125	-7201
8:38:99:130	-7202
8:38:99:171	-7203
9:0,69,1011	-7204
9:0,69,1032	-7205
9:0,69,1045	-7206
9:0,89,1248	-7207
9:0,89,1251	-7208
:28:0,28,42	-7209
:47:0,47,70	-7210
:67:0,67,78	-7211
:69:0,69,73	-7212
:92:0,92,13	-7213
:95:0,95,13	-7214
:97:0,97,13	-7215
:99:168,0,4	-7216
:99:180,0,4	-7217
:99:197,0,4	-7218
:99:202,0,3	-7219
:99:218,0,4	-7220
:99:224,0,2	-7221
:99:224,0,5	-7222
:99:229,0,4	-7223
:99:231,0,3	-7224
:99:233,0,5	-7225
:99:239,0,3	-7226
:99:240,0,3	-7227
:99:245,0,4	-7228
:99:247,0,4	-7229
:99:252,0,3	-7230
:99:256,0,3	-7231
:99:262,0,3	-7232
:99:267,0,4	-7233
:99:270,0,3	-7234
:99:276,0,4	-7235
:99:278,0,3	-7236
:99:281,0,4	-7237
:99:283,0,3	-7238
:99:287,0,3	-7239
:99:288,0,4	-7240
:99:293,0,5	-7241
:99:294,0,5	-7242
:99:295,0,5	-7243
:99:303,0,3	-7244
:99:304,0,3	-7245
:99:306,0,4	-7246
:99:306,0,5	-7247
:99:307,0,3	-7248
:99:308,0,3	-7249
:99:314,0,5	-7250
:99:315,0,3	-7251
:99:318,0,3	-7252
:99:337,0,5	-7253
:99:343,0,5	-7254
:99:346,0,5	-7255
:99:348,0,5	-7256
:99:351,0,6	-7257
:99:354,0,5	-7258
:99:369,0,5	-7259
:99:372,0,5	-7260
:99:377,0,5	-7261
:99:385,0,4	-7262
:99:386,0,5	-7263
:99:390,0,5	-7264
:99:392,0,5	-7265
:99:393,0,5	-7266
:99:395,0,4	-7267
:99:397,0,4	-7268
:99:400,0,2	-7269
:99:400,0,6	-7270
:99:402,0,4	-7271
:99:405,0,4	-7272
:99:416,0,5	-7273
:99:421,0,5	-7274
:99:421,0,6	-7275
:99:424,0,2	-7276
:99:424,0,6	-7277
:99:425,0,5	-7278
:99:429,0,5	-7279
:99:434,0,5	-7280
:99:440,0,5	-7281
:99:452,0,4	-7282
:99:453,0,4	-7283
:99:454,0,6	-7284
:99:456,0,5	-7285
:99:457,0,5	-7286
:99:474,0,5	-7287
:99:496,0,3	-7288
:99:501,0,3	-7289
:99:516,0,2	-7290
:99:527,0,4	-7291
:99:535,0,4	-7292
:99:536,0,4	-7293
:99:543,0,3	-7294
:99:544,0,3	-7295
:99:556,0,3	-7296
:99:556,0,4	-7297
:99:559,0,4	-7298
:99:560,0,3	-7299
:99:562,0,3	-7300
:99:566,0,3	-7301
:99:568,0,5	-7302
:99:571,0,4	-7303
:99:575,0,3	-7304
:99:576,0,3	-7305
:99:588,0,3	-7306
:99:597,0,5	-7307
:99:598,0,3	-7308
:99:605,0,3	-7309
:99:609,0,4	-7310
:99:611,0,6	-7311
:99:613,0,3	-7312
:99:614,0,3	-7313
:99:614,0,4	-7314
:99:617,0,4	-7315
:99:617,0,5	-7316
:99:622,0,5	-7317
:99:626,0,3	-7318
:99:627,0,3	-7319
:99:631,0,3	-7320
:99:633,0,4	-7321
:99:634,0,3	-7322
:99:634,0,4	-7323
:99:637,0,4	-7324
:99:640,0,6	-7325
:99:641,0,4	-7326
:99:647,0,3	-7327
:99:651,0,3	-7328
:99:651,0,5	-7329
:99:652,0,5	-7330
:99:653,0,2	-7331
:99:655,0,5	-7332
:99:656,0,6	-7333
:99:658,0,2	-7334
:99:658,0,4	-7335
:99:659,0,6	-7336
:99:661,0,6	-7337
:99:662,0,4	-7338
:99:668,0,2	-7339
:99:672,0,2	-7340
:99:674,0,4	-7341
:99:693,0,3	-7342
:99:705,0,3	-7343
:99:709,0,6	-7344
:99:711,0,5	-7345
:99:722,0,5	-7346
:99:724,0,5	-7347
:99:739,0,3	-7348
:99:739,0,4	-7349
▁0/0:49,0:4	-7350
▁0/1:4,10:1	-7351
▁0/1:9,22:3	-7352
▁1/1:0,61:6	-7353
▁1/1:1,36:3	-7354
,10:29:99:25	-7355
,11:29:99:25	-7356
,12:31:99:33	-7357
,15:30:99:45	-7358
,15:31:99:38	-7359
,19:40:99:46	-7360
0:99:441,0,3	-7361
0:99:451,0,3	-7362
0:99:466,0,3	-7363
0:99:495,0,3	-7364
0:99:497,0,3	-7365
0:99:509,0,3	-7366
0:99:518,0,3	-7367
1:99:305,0,2	-7368
1:99:431,0,3	-7369
1:99:452,0,3	-7370
1:99:453,0,3	-7371
1:99:462,0,3	-7372
1:99:463,0,4	-7373
1:99:472,0,3	-7374
1:99:494,0,3	-7375
1:99:523,0,3	-7376
2:99:444,0,4	-7377
2:99:476,0,4	-7378
2:99:487,0,3	-7379
2:99:499,0,3	-7380
3:99:501,0,4	-7381
3:99:529,0,4	-7382
3:99:533,0,4	-7383
4:99:278,0,3	-7384
4:99:487,0,4	-7385
4:99:508,0,4	-7386
5:99:248,0,4	-7387
5:99:418,0,5	-7388
5:99:509,0,4	-7389
6:99:402,0,5	-7390
6:99:476,0,5	-7391
70:0,70,1009	-7392
70:0,70,1022	-7393
70:0,70,1080	-7394
71:0,71,1027	-7395
72:0,72,1013	-7396
72:0,72,1037	-7397
72:0,72,1082	-7398
75:0,75,1078	-7399
75:0,75,1099	-7400
76:0,76,1011	-7401
76:0,76,1086	-7402
77:0,77,1170	-7403
78:0,78,1002	-7404
78:0,78,1011	-7405
78:0,78,1032	-7406
78:0,78,1088	-7407
78:0,78,1125	-7408
79:0,79,1044	-7409
79:0,79,1077	-7410
79:0,79,1091	-7411
7:99:463,0,5	-7412
7:99:521,0,4	-7413
81:0,81,1177	-7414
83:0,83,1060	-7415
84:0,84,1007	-7416
84:0,84,1093	-7417
87:0,87,1234	-7418
8:99:444,0,6	-7419
8:99:507,0,5	-7420
8:99:527,0,5	-7421
:20:0,20,395	-7422
:20:0,20,405	-7423
:21:0,21,205	-7424
:21:0,21,252	-7425
:21:0,21,385	-7426
:21:0,21,540	-7427
:23:0,23,574	-7428
:24:0,24,450	-7429
:25:0,25,575	-7430
:25:0,25,614	-7431
:27:0,27,394	-7432
:27:0,27,399	-7433
:27:0,27,429	-7434
:27:0,27,495	-7435
:27:0,27,507	-7436
:29:0,29,371	-7437
:29:0,29,495	-7438
:29:0,29,525	-7439
:30:0,30,501	-7440
:32:0,32,474	-7441
:33:0,33,368	-7442
:34:0,34,432	-7443
:36:0,36,452	-7444
:39:0,39,488	-7445
:42:0,42,578	-7446
:42:0,42,619	-7447
:45:0,45,593	-7448
:60:0,60,660	-7449
:60:0,60,666	-7450
:60:0,60,669	-7451
:60:0,60,675	-7452
:60:0,60,690	-7453
:60:0,60,902	-7454
:60:0,60,910	-7455
:60:0,60,911	-7456
:60:0,60,912	-7457
:60:0,60,914	-7458
:60:0,60,919	-7459
:60:0,60,935	-7460
:60:0,60,968	-7461
:60:0,60,984	-7462
:61:0,61,702	-7463
:61:0,61,720	-7464
:61:0,61,731	-7465
:61:0,61,742	-7466
:61:0,61,761	-7467
:61:0,61,762	-7468
:61:0,61,800	-7469
:61:0,61,807	-7470
:61:0,61,827	-7471
:61:0,61,830	-7472
:61:0,61,839	-7473
:61:0,61,842	-7474
:61:0,61,849	-7475
:61:0,61,862	-7476
:61:0,61,868	-7477
:61:0,61,873	-7478
:61:0,61,885	-7479
:61:0,61,888	-7480
:61:0,61,893	-7481
:61:0,61,895	-7482
:61:0,61,902	-7483
:61:0,61,906	-7484
:61:0,61,907	-7485
:61:0,61,908	-7486
:61:0,61,910	-7487
:61:0,61,925	-7488
:61:0,61,927	-7489
:61:0,61,932	-7490
:61:0,61,933	-7491
:61:0,61,954	-7492
:61:0,61,960	-7493
:61:0,61,962	-7494
:62:0,62,714	-7495
:62:0,62,718	-7496
:62:0,62,736	-7497
:62:0,62,737	-7498
:62:0,62,748	-7499
:62:0,62,751	-7500
:62:0,62,755	-7501
:62:0,62,757	-7502
:62:0,62,768	-7503
:62:0,62,776	-7504
:62:0,62,798	-7505
:62:0,62,803	-7506
:62:0,62,820	-7507
:62:0,62,831	-7508
:62:0,62,838	-7509
:62:0,62,842	-7510
:62:0,62,844	-7511
:62:0,62,853	-7512
:62:0,62,859	-7513
:62:0,62,860	-7514
:62:0,62,864	-7515
:62:0,62,867	-7516
:62:0,62,912	-7517
:62:0,62,918	-7518
:62:0,62,926	-7519
:62:0,62,931	-7520
:62:0,62,934	-7521
:62:0,62,940	-7522
:62:0,62,948	-7523
:62:0,62,962	-7524
:62:0,62,970	-7525
:62:0,62,972	-7526
:63:0,63,671	-7527
:63:0,63,684	-7528
:63:0,63,694	-7529
:63:0,63,702	-7530
:63:0,63,703	-7531
:63:0,63,707	-7532
:63:0,63,709	-7533
:63:0,63,711	-7534
:63:0,63,715	-7535
:63:0,63,724	-7536
:63:0,63,737	-7537
:63:0,63,738	-7538
:63:0,63,749	-7539
:63:0,63,752	-7540
:63:0,63,761	-7541
:63:0,63,766	-7542
:63:0,63,771	-7543
:63:0,63,783	-7544
:63:0,63,808	-7545
:63:0,63,923	-7546
:63:0,63,942	-7547
:63:0,63,954	-7548
:63:0,63,960	-7549
:63:0,63,962	-7550
:63:0,63,991	-7551
:64:0,64,776	-7552
:64:0,64,786	-7553
:64:0,64,809	-7554
:64:0,64,819	-7555
:64:0,64,825	-7556
:64:0,64,829	-7557
:64:0,64,830	-7558
:64:0,64,831	-7559
:64:0,64,840	-7560
:64:0,64,860	-7561
:64:0,64,861	-7562
:64:0,64,868	-7563
:64:0,64,873	-7564
:64:0,64,875	-7565
:64:0,64,876	-7566
:64:0,64,884	-7567
:64:0,64,904	-7568
:64:0,64,908	-7569
:64:0,64,910	-7570
:64:0,64,923	-7571
:64:0,64,935	-7572
:64:0,64,953	-7573
:64:0,64,968	-7574
:64:0,64,970	-7575
:64:0,64,981	-7576
:64:0,64,986	-7577
:65:0,65,627	-7578
:65:0,65,759	-7579
:65:0,65,789	-7580
:65:0,65,823	-7581
:65:0,65,831	-7582
:65:0,65,834	-7583
:65:0,65,841	-7584
:65:0,65,842	-7585
:65:0,65,847	-7586
:65:0,65,848	-7587
:65:0,65,855	-7588
:65:0,65,857	-7589
:65:0,65,860	-7590
:65:0,65,877	-7591
:65:0,65,883	-7592
:65:0,65,912	-7593
:65:0,65,916	-7594
:65:0,65,937	-7595
:65:0,65,940	-7596
:65:0,65,955	-7597
:66:0,66,763	-7598
:66:0,66,767	-7599
:66:0,66,771	-7600
:66:0,66,773	-7601
:66:0,66,774	-7602
:66:0,66,776	-7603
:66:0,66,785	-7604
:66:0,66,788	-7605
:66:0,66,799	-7606
:66:0,66,801	-7607
:66:0,66,805	-7608
:66:0,66,817	-7609
:66:0,66,818	-7610
:66:0,66,826	-7611
:66:0,66,830	-7612
:66:0,66,831	-7613
:66:0,66,834	-7614
:66:0,66,847	-7615
:66:0,66,852	-7616
:66:0,66,853	-7617
:66:0,66,859	-7618
:66:0,66,864	-7619
:66:0,66,868	-7620
:66:0,66,884	-7621
:66:0,66,890	-7622
:66:0,66,892	-7623
:66:0,66,916	-7624
:66:0,66,923	-7625
:66:0,66,930	-7626
:66:0,66,941	-7627
:66:0,66,969	-7628
:66:0,66,973	-7629
:66:0,66,982	-7630
:66:0,66,983	-7631
:66:0,66,989	-7632
:67:0,67,774	-7633
:67:0,67,826	-7634
:67:0,67,853	-7635
:67:0,67,857	-7636
:67:0,67,864	-7637
:67:0,67,868	-7638
:67:0,67,883	-7639
:67:0,67,886	-7640
:67:0,67,894	-7641
:67:0,67,900	-7642
:67:0,67,955	-7643
:67:0,67,965	-7644
:67:0,67,981	-7645
:67:0,67,982	-7646
:68:0,68,761	-7647
:68:0,68,826	-7648
:68:0,68,833	-7649
:68:0,68,846	-7650
:68:0,68,904	-7651
:68:0,68,917	-7652
:68:0,68,928	-7653
:69:0,69,773	-7654
:69:0,69,786	-7655
:69:0,69,793	-7656
:69:0,69,800	-7657
:69:0,69,805	-7658
:69:0,69,811	-7659
:69:0,69,822	-7660
:69:0,69,832	-7661
:69:0,69,838	-7662
:69:0,69,839	-7663
:69:0,69,840	-7664
:69:0,69,854	-7665
:69:0,69,866	-7666
:69:0,69,870	-7667
:69:0,69,872	-7668
:69:0,69,878	-7669
:69:0,69,883	-7670
:69:0,69,885	-7671
:69:0,69,893	-7672
:69:0,69,901	-7673
:69:0,69,906	-7674
:69:0,69,907	-7675
:69:0,69,924	-7676
:69:0,69,932	-7677
:69:0,69,933	-7678
:69:0,69,935	-7679
:69:0,69,937	-7680
:69:0,69,939	-7681
:69:0,69,940	-7682
:69:0,69,944	-7683
:69:0,69,954	-7684
:69:0,69,955	-7685
:69:0,69,965	-7686
:69:0,69,969	-7687
:69:0,69,970	-7688
:69:0,69,971	-7689
:69:0,69,976	-7690
:69:0,69,980	-7691
:69:0,69,992	-7692
:69:0,69,995	-7693
:70:0,70,871	-7694
:70:0,70,894	-7695
:70:0,70,902	-7696
:70:0,70,903	-7697
:70:0,70,925	-7698
:70:0,70,950	-7699
:71:0,71,940	-7700
:71:0,71,962	-7701
:71:0,71,979	-7702
:71:0,71,981	-7703
:72:0,72,814	-7704
:72:0,72,829	-7705
:72:0,72,847	-7706
:72:0,72,879	-7707
:72:0,72,900	-7708
:72:0,72,926	-7709
:72:0,72,940	-7710
:72:0,72,961	-7711
:72:0,72,978	-7712
:74:0,74,910	-7713
:75:0,75,899	-7714
:75:0,75,915	-7715
:78:0,78,854	-7716
:79:0,79,871	-7717
:99:0,110,16	-7718
:99:0,111,14	-7719
:99:797,0,14	-7720
▁0/0:52,0:52	-7721
▁0/1:11,26:3	-7722
▁0/1:12,27:3	-7723
▁0/1:16,7:23	-7724
▁0/1:18,7:25	-7725
▁0/1:22,4:26	-7726
▁0/1:27,23:5	-7727
▁0/1:27,24:5	-7728
▁0/1:28,22:5	-7729
▁0/1:29,20:4	-7730
▁0/1:31,19:5	-7731
▁0/1:6,19:25	-7732
▁0/1:7,21:28	-7733
▁0/1:9,26:35	-7734
▁1/1:1,23:24	-7735
▁1/1:1,24:25	-7736
▁1/1:1,33:34	-7737
▁1/1:1,43:44	-7738
▁1/1:1,45:46	-7739
1:30:0,30,382	-7740
1:30:0,30,450	-7741
33:99:563,0,3	-7742
38:99:555,0,4	-7743
3:33:0,33,452	-7744
3:33:0,33,478	-7745
4:34:0,34,482	-7746
5:35:0,35,501	-7747
:24:99:350,0,	-7748
:26:99:410,0,	-7749
:28:99:350,0,	-7750
:61:0,61,1018	-7751
:62:0,62,1021	-7752
:62:0,62,1035	-7753
:63:0,63,1033	-7754
:63:0,63,1035	-7755
:65:0,65,1045	-7756
:66:0,66,1003	-7757
:66:0,66,1038	-7758
:67:0,67,1022	-7759
:68:0,68,1016	-7760
:68:0,68,1062	-7761
:69:0,69,1003	-7762
:69:0,69,1004	-7763
:69:0,69,1008	-7764
:69:0,69,1028	-7765
:69:0,69,1074	-7766
:69:0,69,1150	-7767
:70:0,70,1016	-7768
:72:0,72,1016	-7769
:72:0,72,1033	-7770
:72:0,72,1064	-7771
:73:0,73,1025	-7772
:73:0,73,1102	-7773
:73:0,73,1176	-7774
:74:0,74,1041	-7775
:75:0,75,1024	-7776
:75:0,75,1054	-7777
:75:0,75,1148	-7778
:76:0,76,1076	-7779
:76:0,76,1138	-7780
:79:0,79,1159	-7781
:84:0,84,1135	-7782
:84:0,84,1207	-7783
:84:0,84,1240	-7784
:84:0,84,1269	-7785
:84:1220,84,0	-7786
:84:1223,84,0	-7787
:90:0,90,1224	-7788
:90:0,90,1257	-7789
:90:0,90,1332	-7790
:90:0,90,1348	-7791
:92:0,92,1323	-7792
:93:0,93,1155	-7793
:93:0,93,1262	-7794
:96:0,96,1399	-7795
:99:0,99,1203	-7796
:99:1027,99,0	-7797
:99:1031,99,0	-7798
:99:1123,99,0	-7799
:99:1132,99,0	-7800
:99:1140,99,0	-7801
:99:1141,99,0	-7802
:99:1143,99,0	-7803
:99:1145,99,0	-7804
:99:1148,99,0	-7805
:99:1157,99,0	-7806
:99:1159,99,0	-7807
:99:1168,99,0	-7808
:99:1169,99,0	-7809
:99:1185,99,0	-7810
:99:357,0,454	-7811
:99:411,0,397	-7812
▁0/0:50,0:50:	-7813
▁0/1:11,17:28	-7814
▁0/1:13,15:28	-7815
▁0/1:13,30:43	-7816
▁0/1:13,31:44	-7817
▁0/1:15,27:42	-7818
▁0/1:16,29:45	-7819
▁0/1:16,30:46	-7820
▁0/1:20,28:48	-7821
▁0/1:20,34:54	-7822
▁0/1:22,13:35	-7823
▁0/1:23,14:37	-7824
▁0/1:24,18:42	-7825
▁0/1:24,21:45	-7826
▁0/1:24,30:54	-7827
▁0/1:26,17:43	-7828
▁0/1:26,28:54	-7829
▁0/1:27,26:53	-7830
▁0/1:27,27:54	-7831
▁0/1:28,29:57	-7832
▁0/1:29,19:48	-7833
▁0/1:30,25:55	-7834
▁0/1:30,27:57	-7835
:24:99:379,0,2	-7836
:25:99:338,0,3	-7837
:25:99:343,0,3	-7838
:25:99:349,0,3	-7839
:25:99:359,0,3	-7840
:25:99:377,0,3	-7841
:25:99:381,0,3	-7842
:26:99:354,0,3	-7843
:26:99:373,0,3	-7844
:26:99:386,0,3	-7845
:26:99:398,0,3	-7846
:26:99:421,0,3	-7847
:26:99:452,0,2	-7848
:26:99:517,0,2	-7849
:27:99:316,0,4	-7850
:27:99:345,0,3	-7851
:27:99:348,0,3	-7852
:27:99:351,0,3	-7853
:27:99:361,0,3	-7854
:27:99:395,0,3	-7855
:27:99:397,0,3	-7856
:27:99:409,0,3	-7857
:27:99:417,0,3	-7858
:28:99:332,0,3	-7859
:28:99:347,0,4	-7860
:28:99:361,0,4	-7861
:28:99:381,0,3	-7862
:28:99:385,0,3	-7863
:28:99:401,0,3	-7864
:28:99:404,0,3	-7865
:28:99:423,0,3	-7866
:28:99:433,0,3	-7867
:28:99:438,0,3	-7868
:29:99:416,0,3	-7869
:29:99:429,0,3	-7870
:29:99:432,0,3	-7871
:29:99:443,0,3	-7872
:29:99:446,0,3	-7873
:29:99:467,0,3	-7874
:29:99:477,0,3	-7875
:29:99:488,0,2	-7876
:32:99:367,0,4	-7877
:32:99:402,0,4	-7878
:35:99:349,0,6	-7879
:45:99:600,0,6	-7880
:99:0,101,1324	-7881
:99:0,105,1657	-7882
:99:1059,102,0	-7883
:99:1064,102,0	-7884
:99:1142,102,0	-7885
:99:1145,102,0	-7886
:99:1155,102,0	-7887
:99:1157,102,0	-7888
:99:1170,102,0	-7889
:99:1171,105,0	-7890
:99:1175,102,0	-7891
:99:1181,102,0	-7892
:99:1183,102,0	-7893
:99:1184,102,0	-7894
:99:1184,105,0	-7895
:99:1185,105,0	-7896
:99:1188,102,0	-7897
:99:1191,102,0	-7898
:99:1192,102,0	-7899
:99:1195,102,0	-7900
:99:1201,102,0	-7901
:99:1201,105,0	-7902
:99:1206,102,0	-7903
:99:1208,105,0	-7904
:99:1209,105,0	-7905
:99:1216,105,0	-7906
:99:1232,108,0	-7907
:99:1242,108,0	-7908
:99:125,0,1774	-7909
:99:1252,108,0	-7910
:99:1254,108,0	-7911
:99:1257,108,0	-7912
:99:1259,108,0	-7913
:99:1262,108,0	-7914
:99:1264,108,0	-7915
:99:1268,108,0	-7916
:99:1273,108,0	-7917
:99:1291,108,0	-7918
:99:1465,126,0	-7919
:99:1477,126,0	-7920
:99:1491,126,0	-7921
:99:1518,132,0	-7922
:99:1621,138,0	-7923
:99:347,0,1210	-7924
:99:347,0,1469	-7925
:99:360,0,1300	-7926
:99:362,0,1238	-7927
:99:388,0,1314	-7928
:99:457,0,1826	-7929
:99:891,0,2265	-7930
▁0/0:19,0:19:2	-7931
▁1/1:0,10:10:3	-7932
7:99:1101,110,0	-7933
7:99:1241,111,0	-7934
7:99:1244,110,0	-7935
7:99:1251,111,0	-7936
7:99:1276,111,0	-7937
7:99:1285,111,0	-7938
7:99:1321,111,0	-7939
▁0/0:18,0:18:28	-7940
▁0/0:19,0:19:35	-7941
▁0/1:6,5:11:99:	-7942
▁1/1:0,24:24:75	-7943
▁1/1:0,25:25:73	-7944
▁1/1:0,25:25:77	-7945
▁1/1:0,27:27:84	-7946
▁1/1:0,28:28:82	-7947
▁1/1:0,31:31:96	-7948
▁1/1:0,32:32:94	-7949
▁1/1:1,30:31:83	-7950
▁0/0:51,0:51:99:	-7951
▁0/1:13,16:29:99	-7952
▁0/1:22,9:31:99:	-7953
▁0/1:23,26:49:99	-7954
▁0/1:26,23:49:99	-7955
▁0/1:5,14:19:99:	-7956
▁0/1:5,16:21:99:	-7957
▁0/1:6,7:13:99:1	-7958
▁0/1:6,8:14:99:2	-7959
▁0/1:8,21:29:99:	-7960
▁0/1:9,20:29:99:	-7961
▁1/1:0,14:14:41:	-7962
▁1/1:1,26:27:71:	-7963
220	-7964
978	-7965
,449	-7966
,494	-7967
,498	-7968
▁	-7969
:	-7970
0	-7971
e	-7972
o	-7973
,	-7974
1	-7975
2	-7976
m	-7977
r	-7978
6	-7979
9	-7980
3	-7981
s	-7982
(	-7983
)	-7984
-	-7985
/	-7986
A	-7987
C	-7988
G	-7989
a	-7990
h	-7991
n	-7992
4	-7993
5	-7994
7	-7995
8	-7996
